#include "magic_wand_model_data.h"

// We need to keep the data array aligned on some architectures.
#ifdef __has_attribute
#define HAVE_ATTRIBUTE(x) __has_attribute(x)
#else
#define HAVE_ATTRIBUTE(x) 0
#endif
#if HAVE_ATTRIBUTE(aligned) || (defined(__GNUC__) && !defined(__clang__))
#define DATA_ALIGN_ATTRIBUTE __attribute__((aligned(4)))
#else
#define DATA_ALIGN_ATTRIBUTE
#endif

const unsigned char g_magic_wand_model_data[] DATA_ALIGN_ATTRIBUTE = {
  0x1c, 0x00, 0x00, 0x00, 0x54, 0x46, 0x4c, 0x33, 0x14, 0x00, 0x20, 0x00,
  0x04, 0x00, 0x08, 0x00, 0x0c, 0x00, 0x10, 0x00, 0x14, 0x00, 0x00, 0x00,
  0x18, 0x00, 0x1c, 0x00, 0x14, 0x00, 0x00, 0x00, 0x03, 0x00, 0x00, 0x00,
  0x18, 0x00, 0x00, 0x00, 0x2c, 0x00, 0x00, 0x00, 0xd4, 0x00, 0x00, 0x00,
  0x2c, 0x00, 0x00, 0x00, 0x7c, 0x00, 0x00, 0x00, 0x74, 0x00, 0x00, 0x00,
  0x05, 0x00, 0x00, 0x00, 0xec, 0x06, 0x00, 0x00, 0x08, 0x06, 0x00, 0x00,
  0xb4, 0x03, 0x00, 0x00, 0xf0, 0x02, 0x00, 0x00, 0xa4, 0x01, 0x00, 0x00,
  0x01, 0x00, 0x00, 0x00, 0xcc, 0x00, 0x00, 0x00, 0x13, 0x00, 0x00, 0x00,
  0xd0, 0x30, 0x00, 0x00, 0xcc, 0x30, 0x00, 0x00, 0xe0, 0x2f, 0x00, 0x00,
  0x68, 0x2f, 0x00, 0x00, 0x18, 0x13, 0x00, 0x00, 0x84, 0x12, 0x00, 0x00,
  0x14, 0x12, 0x00, 0x00, 0x38, 0x10, 0x00, 0x00, 0xa8, 0x0f, 0x00, 0x00,
  0x4c, 0x07, 0x00, 0x00, 0xa8, 0x30, 0x00, 0x00, 0xa4, 0x30, 0x00, 0x00,
  0xa0, 0x30, 0x00, 0x00, 0x9c, 0x30, 0x00, 0x00, 0x98, 0x30, 0x00, 0x00,
  0x94, 0x30, 0x00, 0x00, 0x90, 0x30, 0x00, 0x00, 0x8c, 0x30, 0x00, 0x00,
  0x3c, 0x00, 0x00, 0x00, 0x00, 0x00, 0x00, 0x00, 0x01, 0x00, 0x00, 0x00,
  0x0c, 0x00, 0x00, 0x00, 0x08, 0x00, 0x0c, 0x00, 0x04, 0x00, 0x08, 0x00,
  0x08, 0x00, 0x00, 0x00, 0x08, 0x00, 0x00, 0x00, 0x12, 0x00, 0x00, 0x00,
  0x13, 0x00, 0x00, 0x00, 0x6d, 0x69, 0x6e, 0x5f, 0x72, 0x75, 0x6e, 0x74,
  0x69, 0x6d, 0x65, 0x5f, 0x76, 0x65, 0x72, 0x73, 0x69, 0x6f, 0x6e, 0x00,
  0xa2, 0xd0, 0xff, 0xff, 0x04, 0x00, 0x00, 0x00, 0x10, 0x00, 0x00, 0x00,
  0x31, 0x2e, 0x35, 0x2e, 0x30, 0x00, 0x00, 0x00, 0x00, 0x00, 0x00, 0x00,
  0x00, 0x00, 0x00, 0x00, 0x0f, 0x00, 0x00, 0x00, 0x4d, 0x4c, 0x49, 0x52,
  0x20, 0x43, 0x6f, 0x6e, 0x76, 0x65, 0x72, 0x74, 0x65, 0x64, 0x2e, 0x00,
  0x00, 0x00, 0x0e, 0x00, 0x18, 0x00, 0x04, 0x00, 0x08, 0x00, 0x0c, 0x00,
  0x10, 0x00, 0x14, 0x00, 0x0e, 0x00, 0x00, 0x00, 0x14, 0x00, 0x00, 0x00,
  0x58, 0x00, 0x00, 0x00, 0x5c, 0x00, 0x00, 0x00, 0x60, 0x00, 0x00, 0x00,
  0x80, 0x00, 0x00, 0x00, 0x11, 0x00, 0x00, 0x00, 0x94, 0x2f, 0x00, 0x00,
  0x24, 0x2f, 0x00, 0x00, 0xb0, 0x2e, 0x00, 0x00, 0x48, 0x2e, 0x00, 0x00,
  0xf4, 0x11, 0x00, 0x00, 0x64, 0x11, 0x00, 0x00, 0xe8, 0x10, 0x00, 0x00,
  0x18, 0x0f, 0x00, 0x00, 0x7c, 0x0e, 0x00, 0x00, 0xd8, 0x05, 0x00, 0x00,
  0xf4, 0x04, 0x00, 0x00, 0xe8, 0x03, 0x00, 0x00, 0x3c, 0x03, 0x00, 0x00,
  0x98, 0x02, 0x00, 0x00, 0xd4, 0x01, 0x00, 0x00, 0x10, 0x01, 0x00, 0x00,
  0x84, 0x00, 0x00, 0x00, 0x01, 0x00, 0x00, 0x00, 0x00, 0x00, 0x00, 0x00,
  0x01, 0x00, 0x00, 0x00, 0x10, 0x00, 0x00, 0x00, 0x08, 0x00, 0x00, 0x00,
  0x40, 0x05, 0x00, 0x00, 0x60, 0x04, 0x00, 0x00, 0x78, 0x03, 0x00, 0x00,
  0xbc, 0x02, 0x00, 0x00, 0x30, 0x02, 0x00, 0x00, 0x50, 0x01, 0x00, 0x00,
  0xa8, 0x00, 0x00, 0x00, 0x10, 0x00, 0x00, 0x00, 0x04, 0x00, 0x00, 0x00,
  0x6d, 0x61, 0x69, 0x6e, 0x00, 0x00, 0x00, 0x00, 0x7a, 0xff, 0xff, 0xff,
  0x00, 0x00, 0x00, 0x09, 0x04, 0x00, 0x00, 0x00, 0x1c, 0x00, 0x00, 0x00,
  0x10, 0x00, 0x00, 0x00, 0x04, 0x00, 0x00, 0x00, 0x9a, 0xd1, 0xff, 0xff,
  0x00, 0x00, 0x80, 0x3f, 0x01, 0x00, 0x00, 0x00, 0x10, 0x00, 0x00, 0x00,
  0x01, 0x00, 0x00, 0x00, 0x0f, 0x00, 0x00, 0x00, 0xd4, 0xfa, 0xff, 0xff,
  0x19, 0x00, 0x00, 0x00, 0x00, 0x00, 0x00, 0x19, 0x01, 0x00, 0x00, 0x00,
  0x44, 0xd1, 0xff, 0xff, 0x14, 0x00, 0x00, 0x00, 0x11, 0x00, 0x00, 0x00,
  0x18, 0x00, 0x00, 0x00, 0x30, 0x00, 0x00, 0x00, 0x20, 0x00, 0x00, 0x00,
  0x02, 0x00, 0x00, 0x00, 0x01, 0x00, 0x00, 0x00, 0x01, 0x00, 0x00, 0x00,
  0x08, 0x00, 0x00, 0x00, 0x49, 0x64, 0x65, 0x6e, 0x74, 0x69, 0x74, 0x79,
  0x00, 0x00, 0x00, 0x00, 0x02, 0x00, 0x00, 0x00, 0xff, 0xff, 0xff, 0xff,
  0x01, 0x00, 0x00, 0x00, 0x0c, 0xd2, 0xff, 0xff, 0x00, 0x00, 0x0e, 0x00,
  0x18, 0x00, 0x08, 0x00, 0x0c, 0x00, 0x10, 0x00, 0x07, 0x00, 0x14, 0x00,
  0x0e, 0x00, 0x00, 0x00, 0x00, 0x00, 0x00, 0x08, 0x03, 0x00, 0x00, 0x00,
  0x18, 0x00, 0x00, 0x00, 0x0c, 0x00, 0x00, 0x00, 0x04, 0x00, 0x00, 0x00,
  0x44, 0xd1, 0xff, 0xff, 0x01, 0x00, 0x00, 0x00, 0x0f, 0x00, 0x00, 0x00,
  0x03, 0x00, 0x00, 0x00, 0x0e, 0x00, 0x00, 0x00, 0x04, 0x00, 0x00, 0x00,
  0x01, 0x00, 0x00, 0x00, 0xcc, 0xd1, 0xff, 0xff, 0x14, 0x00, 0x00, 0x00,
  0x10, 0x00, 0x00, 0x00, 0x18, 0x00, 0x00, 0x00, 0x5c, 0x00, 0x00, 0x00,
  0x4c, 0x00, 0x00, 0x00, 0x02, 0x00, 0x00, 0x00, 0x01, 0x00, 0x00, 0x00,
  0x01, 0x00, 0x00, 0x00, 0x34, 0x00, 0x00, 0x00, 0x73, 0x65, 0x71, 0x75,
  0x65, 0x6e, 0x74, 0x69, 0x61, 0x6c, 0x2f, 0x64, 0x65, 0x6e, 0x73, 0x65,
  0x5f, 0x31, 0x2f, 0x4d, 0x61, 0x74, 0x4d, 0x75, 0x6c, 0x3b, 0x73, 0x65,
  0x71, 0x75, 0x65, 0x6e, 0x74, 0x69, 0x61, 0x6c, 0x2f, 0x64, 0x65, 0x6e,
  0x73, 0x65, 0x5f, 0x31, 0x2f, 0x42, 0x69, 0x61, 0x73, 0x41, 0x64, 0x64,
  0x00, 0x00, 0x00, 0x00, 0x02, 0x00, 0x00, 0x00, 0xff, 0xff, 0xff, 0xff,
  0x01, 0x00, 0x00, 0x00, 0xcc, 0xd1, 0xff, 0xff, 0x0e, 0xfd, 0xff, 0xff,
  0x00, 0x00, 0x00, 0x08, 0x03, 0x00, 0x00, 0x00, 0x24, 0x00, 0x00, 0x00,
  0x18, 0x00, 0x00, 0x00, 0x0c, 0x00, 0x00, 0x00, 0x00, 0x00, 0x06, 0x00,
  0x08, 0x00, 0x07, 0x00, 0x06, 0x00, 0x00, 0x00, 0x00, 0x00, 0x00, 0x01,
  0x01, 0x00, 0x00, 0x00, 0x0e, 0x00, 0x00, 0x00, 0x03, 0x00, 0x00, 0x00,
  0x0d, 0x00, 0x00, 0x00, 0x03, 0x00, 0x00, 0x00, 0x07, 0x00, 0x00, 0x00,
  0x1c, 0xfc, 0xff, 0xff, 0x09, 0x00, 0x00, 0x00, 0x00, 0x00, 0x00, 0x09,
  0x01, 0x00, 0x00, 0x00, 0x8c, 0xd2, 0xff, 0xff, 0x14, 0x00, 0x00, 0x00,
  0x0f, 0x00, 0x00, 0x00, 0x18, 0x00, 0x00, 0x00, 0x6c, 0x00, 0x00, 0x00,
  0x5c, 0x00, 0x00, 0x00, 0x02, 0x00, 0x00, 0x00, 0x01, 0x00, 0x00, 0x00,
  0x10, 0x00, 0x00, 0x00, 0x46, 0x00, 0x00, 0x00, 0x73, 0x65, 0x71, 0x75,
  0x65, 0x6e, 0x74, 0x69, 0x61, 0x6c, 0x2f, 0x64, 0x65, 0x6e, 0x73, 0x65,
  0x2f, 0x4d, 0x61, 0x74, 0x4d, 0x75, 0x6c, 0x3b, 0x73, 0x65, 0x71, 0x75,
  0x65, 0x6e, 0x74, 0x69, 0x61, 0x6c, 0x2f, 0x64, 0x65, 0x6e, 0x73, 0x65,
  0x2f, 0x52, 0x65, 0x6c, 0x75, 0x3b, 0x73, 0x65, 0x71, 0x75, 0x65, 0x6e,
  0x74, 0x69, 0x61, 0x6c, 0x2f, 0x64, 0x65, 0x6e, 0x73, 0x65, 0x2f, 0x42,
  0x69, 0x61, 0x73, 0x41, 0x64, 0x64, 0x00, 0x00, 0x02, 0x00, 0x00, 0x00,
  0xff, 0xff, 0xff, 0xff, 0x10, 0x00, 0x00, 0x00, 0x90, 0xd3, 0xff, 0xff,
  0x00, 0x00, 0x0a, 0x00, 0x10, 0x00, 0x04, 0x00, 0x08, 0x00, 0x0c, 0x00,
  0x0a, 0x00, 0x00, 0x00, 0x02, 0x00, 0x00, 0x00, 0x10, 0x00, 0x00, 0x00,
  0x04, 0x00, 0x00, 0x00, 0x01, 0x00, 0x00, 0x00, 0x0d, 0x00, 0x00, 0x00,
  0x02, 0x00, 0x00, 0x00, 0x0c, 0x00, 0x00, 0x00, 0x02, 0x00, 0x00, 0x00,
  0xdc, 0xfc, 0xff, 0xff, 0x16, 0x00, 0x00, 0x00, 0x00, 0x00, 0x00, 0x16,
  0x01, 0x00, 0x00, 0x00, 0x4c, 0xd3, 0xff, 0xff, 0x14, 0x00, 0x00, 0x00,
  0x0e, 0x00, 0x00, 0x00, 0x18, 0x00, 0x00, 0x00, 0x40, 0x00, 0x00, 0x00,
  0x30, 0x00, 0x00, 0x00, 0x02, 0x00, 0x00, 0x00, 0x01, 0x00, 0x00, 0x00,
  0x70, 0x00, 0x00, 0x00, 0x1a, 0x00, 0x00, 0x00, 0x73, 0x65, 0x71, 0x75,
  0x65, 0x6e, 0x74, 0x69, 0x61, 0x6c, 0x2f, 0x66, 0x6c, 0x61, 0x74, 0x74,
  0x65, 0x6e, 0x2f, 0x52, 0x65, 0x73, 0x68, 0x61, 0x70, 0x65, 0x00, 0x00,
  0x02, 0x00, 0x00, 0x00, 0xff, 0xff, 0xff, 0xff, 0x70, 0x00, 0x00, 0x00,
  0x30, 0xd3, 0xff, 0xff, 0x72, 0xfe, 0xff, 0xff, 0x00, 0x00, 0x00, 0x05,
  0x01, 0x00, 0x00, 0x00, 0x38, 0x00, 0x00, 0x00, 0x2c, 0x00, 0x00, 0x00,
  0x14, 0x00, 0x00, 0x00, 0x00, 0x00, 0x0e, 0x00, 0x14, 0x00, 0x00, 0x00,
  0x10, 0x00, 0x0c, 0x00, 0x08, 0x00, 0x04, 0x00, 0x0e, 0x00, 0x00, 0x00,
  0x03, 0x00, 0x00, 0x00, 0x01, 0x00, 0x00, 0x00, 0x03, 0x00, 0x00, 0x00,
  0x01, 0x00, 0x00, 0x00, 0x01, 0x00, 0x00, 0x00, 0x0c, 0x00, 0x00, 0x00,
  0x01, 0x00, 0x00, 0x00, 0x0b, 0x00, 0x00, 0x00, 0xec, 0xd3, 0xff, 0xff,
  0x14, 0x00, 0x00, 0x00, 0x0d, 0x00, 0x00, 0x00, 0x20, 0x00, 0x00, 0x00,
  0x58, 0x00, 0x00, 0x00, 0x40, 0x00, 0x00, 0x00, 0x04, 0x00, 0x00, 0x00,
  0x01, 0x00, 0x00, 0x00, 0x07, 0x00, 0x00, 0x00, 0x01, 0x00, 0x00, 0x00,
  0x10, 0x00, 0x00, 0x00, 0x22, 0x00, 0x00, 0x00, 0x73, 0x65, 0x71, 0x75,
  0x65, 0x6e, 0x74, 0x69, 0x61, 0x6c, 0x2f, 0x6d, 0x61, 0x78, 0x5f, 0x70,
  0x6f, 0x6f, 0x6c, 0x69, 0x6e, 0x67, 0x32, 0x64, 0x5f, 0x31, 0x2f, 0x4d,
  0x61, 0x78, 0x50, 0x6f, 0x6f, 0x6c, 0x00, 0x00, 0x04, 0x00, 0x00, 0x00,
  0xff, 0xff, 0xff, 0xff, 0x07, 0x00, 0x00, 0x00, 0x01, 0x00, 0x00, 0x00,
  0x10, 0x00, 0x00, 0x00, 0xe8, 0xd3, 0xff, 0xff, 0x4e, 0xfe, 0xff, 0xff,
  0x00, 0x00, 0x00, 0x01, 0x24, 0x00, 0x00, 0x00, 0x18, 0x00, 0x00, 0x00,
  0x04, 0x00, 0x00, 0x00, 0x40, 0xfe, 0xff, 0xff, 0x01, 0x00, 0x00, 0x00,
  0x01, 0x00, 0x00, 0x00, 0x00, 0x00, 0x00, 0x01, 0x01, 0x00, 0x00, 0x00,
  0x0b, 0x00, 0x00, 0x00, 0x03, 0x00, 0x00, 0x00, 0x0a, 0x00, 0x00, 0x00,
  0x08, 0x00, 0x00, 0x00, 0x07, 0x00, 0x00, 0x00, 0x94, 0xd4, 0xff, 0xff,
  0x14, 0x00, 0x00, 0x00, 0x0c, 0x00, 0x00, 0x00, 0x20, 0x00, 0x00, 0x00,
  0x84, 0x00, 0x00, 0x00, 0x6c, 0x00, 0x00, 0x00, 0x04, 0x00, 0x00, 0x00,
  0x01, 0x00, 0x00, 0x00, 0x15, 0x00, 0x00, 0x00, 0x01, 0x00, 0x00, 0x00,
  0x10, 0x00, 0x00, 0x00, 0x4f, 0x00, 0x00, 0x00, 0x73, 0x65, 0x71, 0x75,
  0x65, 0x6e, 0x74, 0x69, 0x61, 0x6c, 0x2f, 0x63, 0x6f, 0x6e, 0x76, 0x32,
  0x64, 0x5f, 0x31, 0x2f, 0x52, 0x65, 0x6c, 0x75, 0x3b, 0x73, 0x65, 0x71,
  0x75, 0x65, 0x6e, 0x74, 0x69, 0x61, 0x6c, 0x2f, 0x63, 0x6f, 0x6e, 0x76,
  0x32, 0x64, 0x5f, 0x31, 0x2f, 0x42, 0x69, 0x61, 0x73, 0x41, 0x64, 0x64,
  0x3b, 0x73, 0x65, 0x71, 0x75, 0x65, 0x6e, 0x74, 0x69, 0x61, 0x6c, 0x2f,
  0x63, 0x6f, 0x6e, 0x76, 0x32, 0x64, 0x5f, 0x31, 0x2f, 0x43, 0x6f, 0x6e,
  0x76, 0x32, 0x44, 0x00, 0x04, 0x00, 0x00, 0x00, 0xff, 0xff, 0xff, 0xff,
  0x15, 0x00, 0x00, 0x00, 0x01, 0x00, 0x00, 0x00, 0x10, 0x00, 0x00, 0x00,
  0xb0, 0xd5, 0xff, 0xff, 0x00, 0x00, 0x0e, 0x00, 0x1a, 0x00, 0x08, 0x00,
  0x0c, 0x00, 0x10, 0x00, 0x07, 0x00, 0x14, 0x00, 0x0e, 0x00, 0x00, 0x00,
  0x00, 0x00, 0x00, 0x05, 0x01, 0x00, 0x00, 0x00, 0x3c, 0x00, 0x00, 0x00,
  0x30, 0x00, 0x00, 0x00, 0x14, 0x00, 0x00, 0x00, 0x00, 0x00, 0x0e, 0x00,
  0x18, 0x00, 0x17, 0x00, 0x10, 0x00, 0x0c, 0x00, 0x08, 0x00, 0x04, 0x00,
  0x0e, 0x00, 0x00, 0x00, 0x03, 0x00, 0x00, 0x00, 0x03, 0x00, 0x00, 0x00,
  0x03, 0x00, 0x00, 0x00, 0x03, 0x00, 0x00, 0x00, 0x00, 0x00, 0x00, 0x01,
  0x01, 0x00, 0x00, 0x00, 0x0a, 0x00, 0x00, 0x00, 0x01, 0x00, 0x00, 0x00,
  0x09, 0x00, 0x00, 0x00, 0x2c, 0xff, 0xff, 0xff, 0x11, 0x00, 0x00, 0x00,
  0x00, 0x00, 0x00, 0x11, 0x01, 0x00, 0x00, 0x00, 0x9c, 0xd5, 0xff, 0xff,
  0x14, 0x00, 0x00, 0x00, 0x0b, 0x00, 0x00, 0x00, 0x20, 0x00, 0x00, 0x00,
  0x58, 0x00, 0x00, 0x00, 0x40, 0x00, 0x00, 0x00, 0x04, 0x00, 0x00, 0x00,
  0x01, 0x00, 0x00, 0x00, 0x15, 0x00, 0x00, 0x00, 0x01, 0x00, 0x00, 0x00,
  0x08, 0x00, 0x00, 0x00, 0x20, 0x00, 0x00, 0x00, 0x73, 0x65, 0x71, 0x75,
  0x65, 0x6e, 0x74, 0x69, 0x61, 0x6c, 0x2f, 0x6d, 0x61, 0x78, 0x5f, 0x70,
  0x6f, 0x6f, 0x6c, 0x69, 0x6e, 0x67, 0x32, 0x64, 0x2f, 0x4d, 0x61, 0x78,
  0x50, 0x6f, 0x6f, 0x6c, 0x00, 0x00, 0x00, 0x00, 0x04, 0x00, 0x00, 0x00,
  0xff, 0xff, 0xff, 0xff, 0x15, 0x00, 0x00, 0x00, 0x01, 0x00, 0x00, 0x00,
  0x08, 0x00, 0x00, 0x00, 0x8c, 0xd6, 0xff, 0xff, 0x00, 0x00, 0x0e, 0x00,
  0x14, 0x00, 0x00, 0x00, 0x08, 0x00, 0x0c, 0x00, 0x07, 0x00, 0x10, 0x00,
  0x0e, 0x00, 0x00, 0x00, 0x00, 0x00, 0x00, 0x01, 0x30, 0x00, 0x00, 0x00,
  0x24, 0x00, 0x00, 0x00, 0x10, 0x00, 0x00, 0x00, 0x0c, 0x00, 0x10, 0x00,
  0x00, 0x00, 0x04, 0x00, 0x08, 0x00, 0x0f, 0x00, 0x0c, 0x00, 0x00, 0x00,
  0x01, 0x00, 0x00, 0x00, 0x01, 0x00, 0x00, 0x00, 0x00, 0x00, 0x00, 0x01,
  0x01, 0x00, 0x00, 0x00, 0x09, 0x00, 0x00, 0x00, 0x03, 0x00, 0x00, 0x00,
  0x00, 0x00, 0x00, 0x00, 0x06, 0x00, 0x00, 0x00, 0x05, 0x00, 0x00, 0x00,
  0x0c, 0x00, 0x10, 0x00, 0x0b, 0x00, 0x00, 0x00, 0x0c, 0x00, 0x04, 0x00,
  0x0c, 0x00, 0x00, 0x00, 0x03, 0x00, 0x00, 0x00, 0x00, 0x00, 0x00, 0x03,
  0x01, 0x00, 0x00, 0x00, 0x7c, 0xd6, 0xff, 0xff, 0x14, 0x00, 0x00, 0x00,
  0x0a, 0x00, 0x00, 0x00, 0x20, 0x00, 0x00, 0x00, 0x80, 0x00, 0x00, 0x00,
  0x68, 0x00, 0x00, 0x00, 0x04, 0x00, 0x00, 0x00, 0x01, 0x00, 0x00, 0x00,
  0x40, 0x00, 0x00, 0x00, 0x03, 0x00, 0x00, 0x00, 0x08, 0x00, 0x00, 0x00,
  0x49, 0x00, 0x00, 0x00, 0x73, 0x65, 0x71, 0x75, 0x65, 0x6e, 0x74, 0x69,
  0x61, 0x6c, 0x2f, 0x63, 0x6f, 0x6e, 0x76, 0x32, 0x64, 0x2f, 0x52, 0x65,
  0x6c, 0x75, 0x3b, 0x73, 0x65, 0x71, 0x75, 0x65, 0x6e, 0x74, 0x69, 0x61,
  0x6c, 0x2f, 0x63, 0x6f, 0x6e, 0x76, 0x32, 0x64, 0x2f, 0x42, 0x69, 0x61,
  0x73, 0x41, 0x64, 0x64, 0x3b, 0x73, 0x65, 0x71, 0x75, 0x65, 0x6e, 0x74,
  0x69, 0x61, 0x6c, 0x2f, 0x63, 0x6f, 0x6e, 0x76, 0x32, 0x64, 0x2f, 0x43,
  0x6f, 0x6e, 0x76, 0x32, 0x44, 0x00, 0x00, 0x00, 0x04, 0x00, 0x00, 0x00,
  0xff, 0xff, 0xff, 0xff, 0x40, 0x00, 0x00, 0x00, 0x03, 0x00, 0x00, 0x00,
  0x08, 0x00, 0x00, 0x00, 0xa0, 0xd6, 0xff, 0xff, 0x8e, 0xd7, 0xff, 0xff,
  0x04, 0x00, 0x00, 0x00, 0x00, 0x08, 0x00, 0x00, 0x6c, 0x2a, 0x26, 0x3e,
  0x54, 0xc3, 0x0a, 0x3e, 0x70, 0xf2, 0xa1, 0x3d, 0x98, 0xc7, 0x4a, 0x3e,
  0x70, 0x01, 0xca, 0xbd, 0xa0, 0x13, 0xb8, 0xbc, 0x38, 0xf3, 0xf6, 0x3d,
  0xc8, 0xb0, 0x3e, 0xbe, 0x84, 0x53, 0x7c, 0xbe, 0x28, 0xd8, 0x7f, 0xbe,
  0x60, 0xf8, 0xe5, 0xbc, 0xa4, 0xd5, 0x23, 0x3e, 0x30, 0xc7, 0x74, 0xbd,
  0x9c, 0x13, 0x14, 0x3e, 0xd4, 0x8b, 0x4f, 0x3e, 0xc0, 0x02, 0x4a, 0xbd,
  0xbc, 0x9d, 0x36, 0x3e, 0x08, 0x1b, 0x11, 0xbe, 0xb8, 0x12, 0x4c, 0xbe,
  0xc0, 0x80, 0xc8, 0x3c, 0xe0, 0x6e, 0xf6, 0x3c, 0xf8, 0x6d, 0x09, 0xbe,
  0x58, 0xac, 0xf1, 0xbd, 0x60, 0xe7, 0x07, 0xbd, 0x60, 0xc1, 0x2c, 0x3d,
  0x3c, 0x76, 0x68, 0xbe, 0x80, 0x63, 0xf9, 0xbb, 0xf0, 0xbc, 0xa0, 0x3d,
  0x60, 0x3d, 0x1e, 0xbe, 0x44, 0x8a, 0x3b, 0x3e, 0x78, 0x2a, 0xd9, 0xbd,
  0x90, 0xb3, 0xcc, 0xbd, 0x4c, 0x22, 0x3b, 0x3e, 0xfc, 0x51, 0x76, 0x3e,
  0x64, 0x07, 0x1f, 0xbe, 0x20, 0x82, 0xcf, 0x3d, 0x94, 0x0a, 0x17, 0x3e,
  0xd0, 0x31, 0x41, 0xbe, 0xa0, 0x26, 0x2e, 0x3d, 0x80, 0x88, 0xf5, 0x3b,
  0x90, 0xbe, 0x11, 0xbd, 0x1c, 0x4a, 0x16, 0x3e, 0xf4, 0x0b, 0x41, 0x3e,
  0xcc, 0x4d, 0x6f, 0x3e, 0x40, 0x80, 0x7f, 0x3c, 0x78, 0x94, 0x70, 0x3e,
  0x40, 0xb4, 0x99, 0x3c, 0xa0, 0x67, 0xd5, 0x3c, 0xb8, 0x27, 0xf3, 0x3d,
  0xf8, 0x8c, 0xb1, 0x3d, 0x08, 0xee, 0xd9, 0x3d, 0x0c, 0xe9, 0x00, 0xbe,
  0xc0, 0xbc, 0x0a, 0xbc, 0x98, 0x59, 0xa3, 0x3d, 0xfc, 0xef, 0x43, 0x3e,
  0x38, 0xa5, 0x16, 0xbe, 0x60, 0x61, 0x83, 0xbd, 0x94, 0x58, 0x79, 0xbe,
  0x24, 0xd7, 0x32, 0xbe, 0x18, 0x1d, 0x39, 0xbe, 0x78, 0x00, 0x16, 0xbe,
  0x50, 0x80, 0x06, 0x3d, 0xe0, 0x62, 0x75, 0xbe, 0x60, 0x9c, 0x9f, 0x3c,
  0x80, 0xf8, 0x87, 0x3b, 0x60, 0xa2, 0x6e, 0x3e, 0xdc, 0x9a, 0x45, 0x3e,
  0x40, 0x78, 0xf4, 0x3c, 0x7c, 0x69, 0x7e, 0x3e, 0xf0, 0xbc, 0xb9, 0x3d,
  0xe8, 0xe4, 0x16, 0x3e, 0x64, 0x08, 0x76, 0x3e, 0xc0, 0x0e, 0xae, 0xbc,
  0xa4, 0x19, 0x3b, 0xbe, 0x40, 0xef, 0x2b, 0x3c, 0x00, 0x04, 0xfa, 0xbb,
  0x88, 0x67, 0x08, 0x3e, 0x2c, 0xdc, 0x46, 0x3e, 0x30, 0x55, 0x6a, 0xbd,
  0x88, 0xf9, 0x32, 0x3e, 0x00, 0xf1, 0x0c, 0xbd, 0xf0, 0x16, 0x10, 0xbd,
  0xa8, 0x31, 0xc1, 0xbd, 0xb8, 0x60, 0x68, 0x3e, 0x48, 0xb8, 0x6c, 0xbe,
  0x20, 0x28, 0xc7, 0x3c, 0x44, 0xdb, 0x75, 0x3e, 0xb8, 0xc7, 0x96, 0x3d,
  0x80, 0xf8, 0x7a, 0xbc, 0x14, 0x67, 0x2d, 0x3e, 0xd8, 0x41, 0x10, 0x3e,
  0x90, 0x84, 0x4f, 0x3d, 0x40, 0xef, 0x59, 0xbc, 0xe0, 0x78, 0xa5, 0x3c,
  0x68, 0x40, 0x71, 0x3e, 0x54, 0x96, 0x7c, 0x3e, 0x28, 0xb3, 0x84, 0x3d,
  0x40, 0x29, 0xc7, 0x3d, 0x64, 0x29, 0x77, 0xbe, 0x70, 0xfb, 0xa2, 0x3d,
  0x90, 0x5e, 0xd5, 0xbd, 0xa0, 0xb2, 0x51, 0x3e, 0xc0, 0xdf, 0x9a, 0xbc,
  0xb0, 0x08, 0x45, 0xbe, 0x08, 0x97, 0x09, 0xbe, 0x98, 0x87, 0x3d, 0x3e,
  0x80, 0x08, 0x83, 0x3d, 0xb0, 0xdd, 0xb4, 0x3d, 0xdc, 0xb6, 0x3a, 0x3e,
  0x30, 0x93, 0x5f, 0x3d, 0x40, 0x16, 0xfd, 0xbd, 0xb0, 0x8c, 0xe9, 0x3d,
  0x20, 0x11, 0x31, 0x3d, 0xd0, 0x34, 0xb0, 0x3d, 0x28, 0x3a, 0x45, 0xbe,
  0x60, 0x5f, 0x08, 0x3e, 0xa0, 0x6e, 0x23, 0xbd, 0x00, 0x54, 0xf7, 0xbc,
  0xf4, 0xee, 0x28, 0xbe, 0x80, 0x15, 0xd2, 0x3c, 0x28, 0x8d, 0xbb, 0xbd,
  0xf0, 0xd3, 0x57, 0xbe, 0x90, 0x26, 0x8a, 0xbd, 0x08, 0x94, 0x9a, 0x3d,
  0x30, 0xce, 0xce, 0xbd, 0xe0, 0x8f, 0xf7, 0x3c, 0xb8, 0x89, 0x5f, 0xbe,
  0x70, 0x1f, 0xd1, 0x3d, 0xd4, 0x9e, 0x47, 0xbe, 0x30, 0xff, 0x90, 0x3d,
  0x20, 0x62, 0xd0, 0x3d, 0x20, 0x50, 0x6c, 0xbe, 0x40, 0xa0, 0xa0, 0xbc,
  0xf8, 0xf5, 0x62, 0xbe, 0xf0, 0xa1, 0x73, 0xbe, 0x90, 0xc6, 0x55, 0xbd,
  0x50, 0x3d, 0x38, 0x3e, 0xf0, 0x61, 0xd4, 0xbd, 0x40, 0x4c, 0xde, 0xbd,
  0x00, 0xa8, 0x2a, 0xbe, 0x10, 0xaf, 0x1c, 0xbe, 0x80, 0x69, 0x2d, 0xbc,
  0x6c, 0xa2, 0x3e, 0xbe, 0xb0, 0xaf, 0x18, 0xbe, 0x60, 0x7e, 0x76, 0xbd,
  0x08, 0x54, 0x50, 0x3e, 0x74, 0x3c, 0x17, 0xbe, 0x00, 0x08, 0xab, 0xbc,
  0x24, 0x88, 0x1f, 0x3e, 0x98, 0x82, 0x2d, 0xbe, 0x40, 0xa7, 0x8d, 0x3d,
  0xf0, 0xfa, 0x37, 0x3e, 0x80, 0xbe, 0x32, 0x3e, 0xc0, 0xe5, 0xce, 0x3c,
  0xd8, 0x6e, 0x2f, 0x3e, 0x98, 0x80, 0x7e, 0x3e, 0xf8, 0x5a, 0xf5, 0xbd,
  0xbc, 0xc5, 0x2f, 0x3e, 0x08, 0x15, 0x82, 0x3d, 0x80, 0xe6, 0xc0, 0x3d,
  0x24, 0xff, 0x29, 0xbe, 0x40, 0xe4, 0x38, 0xbd, 0xa4, 0x4c, 0x24, 0x3e,
  0xd4, 0xea, 0x79, 0x3e, 0x78, 0x0d, 0xaf, 0xbd, 0xb4, 0x94, 0x71, 0x3e,
  0x98, 0x9e, 0xe5, 0xbd, 0x0c, 0x04, 0x34, 0xbe, 0xd8, 0x77, 0xbf, 0x3d,
  0xf8, 0xe6, 0x35, 0xbe, 0xa0, 0xb3, 0xbc, 0x3c, 0x34, 0x06, 0x7f, 0x3e,
  0xb0, 0x85, 0x03, 0xbe, 0x00, 0x9c, 0x35, 0x3e, 0xf8, 0xb6, 0xd9, 0x3d,
  0x68, 0xd1, 0x44, 0x3e, 0xc4, 0xe3, 0x60, 0xbe, 0x48, 0x0b, 0xb5, 0xbd,
  0x90, 0xde, 0xbc, 0xbd, 0xc8, 0x1a, 0x4a, 0xbe, 0xa0, 0x65, 0x63, 0xbe,
  0x38, 0x8b, 0xf0, 0xbd, 0x00, 0xbe, 0xba, 0x3b, 0x2c, 0x9b, 0x0e, 0x3e,
  0x74, 0x92, 0x6e, 0xbe, 0xd0, 0x9a, 0x7a, 0xbd, 0x28, 0x16, 0x82, 0x3d,
  0x60, 0x36, 0xa3, 0x3c, 0x90, 0xb2, 0x4e, 0x3e, 0x3c, 0x37, 0x34, 0x3e,
  0xa4, 0x0a, 0x21, 0x3e, 0x08, 0xf6, 0x90, 0x3d, 0x88, 0xf8, 0x68, 0xbe,
  0x28, 0x11, 0x6a, 0xbe, 0xec, 0x7e, 0x67, 0x3e, 0xf8, 0x99, 0x70, 0x3e,
  0xa0, 0xe5, 0x94, 0xbc, 0x44, 0x07, 0x60, 0x3e, 0x9c, 0xd7, 0x7e, 0x3e,
  0xe0, 0x79, 0x53, 0x3e, 0xa4, 0xfa, 0x7f, 0xbe, 0x30, 0x62, 0x9d, 0x3d,
  0xa4, 0x0d, 0x65, 0x3e, 0x90, 0x74, 0x3f, 0x3e, 0xac, 0xbc, 0x23, 0x3e,
  0x00, 0x2d, 0x4c, 0x3b, 0x70, 0x04, 0x5f, 0x3e, 0x2c, 0x46, 0x63, 0xbe,
  0x38, 0x9d, 0x9a, 0x3d, 0x88, 0xe7, 0xf6, 0xbd, 0xd8, 0x96, 0x25, 0xbe,
  0x24, 0xab, 0x4f, 0xbe, 0x54, 0x2a, 0x3c, 0x3e, 0x9c, 0x9d, 0x18, 0xbe,
  0xf4, 0xf2, 0x33, 0x3e, 0x10, 0xbb, 0x99, 0x3d, 0x90, 0x60, 0x21, 0xbe,
  0x90, 0x8a, 0xfc, 0xbd, 0x70, 0x25, 0x5e, 0x3e, 0x10, 0xd4, 0xe7, 0x3d,
  0xf8, 0x2a, 0x98, 0xbd, 0xe0, 0x69, 0x9a, 0x3c, 0xa0, 0x08, 0x33, 0x3e,
  0x64, 0xa8, 0x72, 0x3e, 0x74, 0x71, 0x0a, 0x3e, 0xa0, 0x0c, 0xd1, 0xbc,
  0x10, 0x1d, 0x25, 0x3d, 0x08, 0xd8, 0x61, 0xbe, 0xe0, 0x8c, 0x83, 0x3d,
  0x00, 0xc3, 0x7b, 0x3b, 0x00, 0x20, 0x06, 0x3d, 0x88, 0x14, 0x82, 0xbd,
  0x48, 0x2d, 0xba, 0xbd, 0x78, 0xf5, 0xaf, 0xbd, 0x14, 0xef, 0x16, 0x3e,
  0xc0, 0xbb, 0xea, 0x3c, 0xf0, 0xeb, 0x74, 0x3d, 0x10, 0x13, 0x2d, 0xbe,
  0xb8, 0x9f, 0xcd, 0x3d, 0x5c, 0xa0, 0x21, 0x3e, 0x20, 0x59, 0xda, 0x3d,
  0x44, 0x63, 0x33, 0x3e, 0x44, 0xf9, 0x22, 0xbe, 0x1c, 0xc7, 0x64, 0x3e,
  0x00, 0x71, 0x00, 0x3b, 0x68, 0xe6, 0x41, 0x3e, 0x00, 0x64, 0x71, 0x3b,
  0x78, 0x9e, 0x27, 0x3e, 0x48, 0xec, 0x38, 0x3e, 0x3c, 0xdb, 0x3a, 0xbe,
  0x50, 0xe9, 0x55, 0xbe, 0xc0, 0xc8, 0xae, 0x3d, 0xe4, 0x8c, 0x74, 0x3e,
  0xb0, 0x8e, 0xa1, 0xbd, 0x88, 0xb7, 0x56, 0x3e, 0xa8, 0xcc, 0x69, 0xbe,
  0xa4, 0xef, 0x0d, 0x3e, 0xe4, 0x4a, 0x05, 0x3e, 0x88, 0xb9, 0x0d, 0x3e,
  0x78, 0x7a, 0xa3, 0x3d, 0x80, 0x38, 0xa0, 0x3d, 0x60, 0x15, 0xe3, 0x3c,
  0x60, 0x85, 0xf5, 0x3d, 0xc0, 0xbf, 0x18, 0xbc, 0xe0, 0x13, 0x62, 0x3d,
  0x88, 0x8e, 0xe7, 0x3d, 0x80, 0x0c, 0x32, 0x3c, 0xa0, 0x31, 0x32, 0xbd,
  0xf8, 0x61, 0x65, 0xbe, 0x90, 0xbd, 0x9b, 0xbd, 0x8c, 0x9f, 0x16, 0xbe,
  0x00, 0x3f, 0x12, 0xbe, 0xa0, 0xf9, 0xae, 0xbd, 0xf0, 0x8b, 0x76, 0x3d,
  0xf8, 0x42, 0xb4, 0x3d, 0x80, 0x54, 0xdc, 0xbc, 0x20, 0x7a, 0x54, 0xbd,
  0xe0, 0x0f, 0x10, 0x3d, 0x98, 0xec, 0x06, 0xbe, 0xd0, 0xa8, 0x79, 0x3d,
  0xcc, 0x07, 0x05, 0x3e, 0x08, 0x0d, 0xf6, 0xbd, 0x40, 0x4c, 0x4b, 0x3e,
  0x20, 0xa0, 0x19, 0xbd, 0xdc, 0x72, 0x2a, 0xbe, 0xa0, 0x63, 0xd3, 0xbd,
  0x48, 0xf0, 0xbc, 0xbd, 0x30, 0x20, 0x4c, 0xbe, 0x20, 0xaf, 0xa8, 0xbc,
  0x50, 0xc3, 0xaf, 0xbd, 0x08, 0x9c, 0xff, 0xbd, 0x98, 0x83, 0xbd, 0x3d,
  0x98, 0x5e, 0x8b, 0x3d, 0xd0, 0xe7, 0x5b, 0xbe, 0xb0, 0x61, 0x00, 0xbd,
  0x78, 0x91, 0x90, 0x3d, 0xec, 0x74, 0x5b, 0x3e, 0x60, 0xfe, 0x77, 0xbd,
  0xc8, 0x16, 0x8c, 0xbd, 0x28, 0x28, 0xd4, 0x3d, 0x30, 0x5e, 0xb2, 0x3d,
  0x90, 0x79, 0x6d, 0x3e, 0xc0, 0x62, 0x11, 0x3d, 0x1c, 0x59, 0x3f, 0x3e,
  0xc4, 0x89, 0x65, 0x3e, 0x90, 0x3d, 0x41, 0x3d, 0x00, 0x31, 0x58, 0x3b,
  0xe8, 0x2a, 0xd2, 0x3d, 0x00, 0x3f, 0xf0, 0xbd, 0x00, 0x9c, 0x42, 0x3a,
  0x90, 0xa4, 0xf8, 0xbd, 0x90, 0x1f, 0x6b, 0x3d, 0x78, 0xdf, 0xd9, 0xbd,
  0x14, 0x97, 0x2c, 0xbe, 0xf0, 0x94, 0x49, 0xbd, 0x58, 0x88, 0xd8, 0xbd,
  0x40, 0x8d, 0x56, 0x3c, 0xf0, 0x15, 0x37, 0x3d, 0xf0, 0x8a, 0x52, 0x3e,
  0x50, 0x40, 0x8b, 0x3d, 0xc0, 0xda, 0xbb, 0x3d, 0x60, 0xdf, 0x22, 0x3e,
  0xe8, 0x3d, 0xc4, 0x3d, 0xa0, 0x93, 0x2e, 0x3e, 0xa4, 0x2b, 0x04, 0xbe,
  0x28, 0xd5, 0x37, 0xbe, 0x54, 0x81, 0x56, 0xbe, 0xd0, 0x92, 0xe1, 0xbd,
  0x70, 0x74, 0x21, 0x3e, 0x00, 0x47, 0xa3, 0x3d, 0x60, 0xf2, 0x0f, 0xbe,
  0xa4, 0x52, 0x62, 0xbe, 0x78, 0xc0, 0x7f, 0x3e, 0x18, 0xa3, 0xa5, 0xbd,
  0xc0, 0x74, 0x1a, 0x3c, 0xf8, 0xbc, 0xaa, 0x3d, 0x60, 0x96, 0xa8, 0x3c,
  0x20, 0x8b, 0x6f, 0xbd, 0x00, 0x32, 0xa3, 0xbc, 0x04, 0x9f, 0x13, 0x3e,
  0xa0, 0xc0, 0xe0, 0xbd, 0x00, 0xc0, 0xb8, 0x3c, 0x80, 0xf8, 0x86, 0x3b,
  0xe8, 0x98, 0x11, 0xbe, 0xe0, 0xbc, 0x5b, 0x3d, 0xf4, 0x8c, 0x3e, 0xbe,
  0x1c, 0x36, 0x28, 0xbe, 0xe0, 0x2f, 0xd3, 0x3d, 0x88, 0x52, 0x56, 0xbe,
  0x20, 0x40, 0x8f, 0x3c, 0x40, 0x51, 0x93, 0x3c, 0x60, 0x80, 0x66, 0x3d,
  0xf0, 0xe5, 0xd6, 0x3d, 0x18, 0x23, 0x01, 0xbe, 0x10, 0x78, 0x55, 0x3e,
  0xe0, 0xeb, 0x1b, 0xbe, 0x74, 0x1a, 0x08, 0x3e, 0x00, 0xfd, 0xf8, 0x3c,
  0x60, 0xcf, 0x31, 0xbd, 0xb0, 0x51, 0x9c, 0xbd, 0x70, 0x99, 0x47, 0x3e,
  0xdc, 0x7a, 0x37, 0xbe, 0x50, 0x81, 0x02, 0x3d, 0x74, 0xb7, 0x76, 0xbe,
  0xe8, 0x04, 0x9e, 0xbd, 0xc8, 0x7c, 0xde, 0xbd, 0x80, 0xba, 0x76, 0x3e,
  0x58, 0xbc, 0x98, 0xbd, 0x64, 0xe6, 0x7b, 0x3e, 0xf0, 0xe5, 0x2b, 0xbe,
  0xe0, 0x28, 0xa1, 0xbc, 0xe4, 0xfb, 0x6b, 0xbe, 0x2c, 0xbd, 0x12, 0x3e,
  0x60, 0xc2, 0xa2, 0xbc, 0x20, 0x8c, 0x5a, 0x3d, 0xe8, 0xfa, 0xc8, 0x3d,
  0x40, 0x39, 0xa0, 0x3d, 0xc0, 0x9e, 0x6f, 0xbe, 0x68, 0xdf, 0x1b, 0x3e,
  0xb4, 0x91, 0x2a, 0xbe, 0xc0, 0x92, 0xf2, 0x3c, 0xb4, 0xb0, 0x57, 0x3e,
  0x38, 0xcc, 0xad, 0xbd, 0xb0, 0xb4, 0x82, 0x3d, 0xf0, 0x91, 0x1e, 0x3e,
  0x18, 0xad, 0x83, 0x3d, 0x9c, 0x1e, 0x01, 0x3e, 0x18, 0xda, 0xcc, 0xbd,
  0x48, 0x86, 0x1c, 0xbe, 0xb8, 0x3a, 0x30, 0x3e, 0x20, 0x3d, 0xe8, 0xbd,
  0x30, 0x6a, 0x86, 0xbd, 0x00, 0xa0, 0x4e, 0x39, 0xc0, 0x4d, 0xa3, 0x3d,
  0x30, 0xd6, 0xec, 0xbd, 0x3c, 0x24, 0x50, 0x3e, 0xd8, 0x93, 0xd9, 0xbd,
  0x90, 0x5a, 0xd2, 0x3d, 0x60, 0x84, 0xae, 0x3d, 0x68, 0xa8, 0xba, 0xbd,
  0x20, 0xbd, 0xaa, 0xbd, 0x68, 0x73, 0x5a, 0x3e, 0x00, 0x4c, 0x2b, 0xba,
  0x68, 0xc9, 0x86, 0x3d, 0xf8, 0x24, 0x72, 0x3e, 0x00, 0x55, 0x7a, 0x3c,
  0x20, 0x05, 0x84, 0xbc, 0x18, 0x53, 0xdd, 0x3d, 0xa0, 0xa6, 0x60, 0x3e,
  0x30, 0x89, 0x6a, 0x3d, 0xcc, 0xc9, 0x04, 0x3e, 0x48, 0xb5, 0x74, 0x3e,
  0x58, 0xfb, 0xf7, 0x3d, 0x24, 0x61, 0x69, 0x3e, 0xf0, 0x0d, 0x88, 0xbd,
  0x48, 0xfc, 0x2b, 0x3e, 0xcc, 0xed, 0x29, 0x3e, 0x30, 0xc1, 0xc3, 0xbd,
  0xe0, 0xd4, 0x7b, 0xbd, 0x04, 0x58, 0x61, 0xbe, 0xa8, 0x4e, 0x65, 0xbe,
  0xa8, 0x09, 0xa8, 0xbd, 0x30, 0xd5, 0xab, 0xbd, 0x64, 0x60, 0x46, 0x3e,
  0xa8, 0xa0, 0xcd, 0xbd, 0x60, 0x9a, 0x4c, 0x3e, 0xfc, 0x66, 0x40, 0x3e,
  0x88, 0x9f, 0x7a, 0xbe, 0x08, 0xce, 0xfe, 0xbd, 0x68, 0x7d, 0x6e, 0xbe,
  0x30, 0x47, 0x4e, 0x3d, 0x90, 0xf4, 0x14, 0x3e, 0x20, 0x0c, 0x92, 0xbd,
  0xe8, 0xe3, 0x0b, 0x3e, 0x78, 0xc7, 0xf8, 0x3d, 0x40, 0xda, 0xa1, 0x3c,
  0xe0, 0x33, 0xab, 0xbc, 0xb0, 0x58, 0xff, 0xbd, 0xe8, 0x28, 0xe8, 0xbd,
  0x94, 0x12, 0x31, 0xbe, 0x18, 0x7f, 0x9f, 0x3d, 0x40, 0xb2, 0x45, 0x3d,
  0x98, 0xcd, 0x40, 0xbe, 0x80, 0xd6, 0x6d, 0xbc, 0xa0, 0xc8, 0x7e, 0xbe,
  0xb0, 0xdb, 0x2d, 0x3d, 0x9c, 0xb9, 0x19, 0x3e, 0x20, 0x4f, 0xb3, 0x3d,
  0x70, 0x02, 0x36, 0xbe, 0xe0, 0xaa, 0x1b, 0xbd, 0x80, 0xf2, 0xe7, 0x3c,
  0x10, 0x31, 0x2c, 0x3d, 0x1c, 0x5d, 0x25, 0x3e, 0xdc, 0x92, 0x63, 0x3e,
  0xd0, 0x47, 0x2a, 0x3d, 0x10, 0xf2, 0xa8, 0xbd, 0x1c, 0x4d, 0x05, 0x3e,
  0x54, 0x82, 0x75, 0xbe, 0x80, 0xaf, 0x7a, 0x3c, 0xe0, 0xbb, 0x65, 0x3d,
  0x40, 0x6c, 0x9b, 0x3d, 0xa0, 0x8a, 0xd5, 0x3d, 0x10, 0x04, 0x09, 0xbd,
  0x78, 0x6b, 0x5a, 0xbe, 0x00, 0xa0, 0x4f, 0x3e, 0x10, 0xec, 0x39, 0xbd,
  0x4c, 0x51, 0x73, 0x3e, 0x80, 0x9d, 0xa9, 0x3d, 0x04, 0xf1, 0x23, 0x3e,
  0xd0, 0xcc, 0xc2, 0xbd, 0x20, 0xcf, 0x88, 0x3c, 0xa8, 0x6b, 0x90, 0x3d,
  0x3c, 0x81, 0x0c, 0xbe, 0x20, 0xa6, 0xf5, 0xbc, 0x68, 0x2a, 0x5a, 0x3e,
  0xa0, 0xef, 0x0f, 0x3e, 0xa0, 0xb7, 0xbe, 0x3d, 0x00, 0x0a, 0x83, 0x3c,
  0xbc, 0xdd, 0x47, 0x3e, 0x48, 0x44, 0x13, 0xbe, 0xb4, 0xc9, 0x18, 0x3e,
  0x54, 0xc3, 0x08, 0x3e, 0xb0, 0x34, 0x7c, 0x3e, 0xe0, 0x73, 0xb0, 0xbd,
  0xc8, 0x9c, 0x04, 0x3e, 0x34, 0x38, 0x01, 0xbe, 0xa0, 0x81, 0xdf, 0x3d,
  0xf0, 0xa9, 0xaf, 0xbd, 0x14, 0x1f, 0x76, 0x3e, 0x58, 0x34, 0x89, 0xbd,
  0xf4, 0x21, 0x71, 0xbe, 0x48, 0x20, 0x25, 0x3e, 0x90, 0x24, 0xf4, 0xbd,
  0x0c, 0xd6, 0x70, 0xbe, 0xb4, 0x7c, 0x64, 0x3e, 0x10, 0xaa, 0xc4, 0x3d,
  0x9c, 0x67, 0x31, 0xbe, 0x50, 0x67, 0x73, 0x3e, 0x90, 0xbf, 0x88, 0x3d,
  0xc0, 0x32, 0x7f, 0x3e, 0x00, 0x80, 0xc1, 0xbb, 0xa0, 0x61, 0x35, 0xbd,
  0x80, 0x98, 0xd0, 0xbc, 0x20, 0xad, 0x98, 0x3c, 0x70, 0xff, 0x53, 0xbe,
  0xb0, 0xb6, 0x00, 0x3e, 0x20, 0x2f, 0x1a, 0xbd, 0xc8, 0xb6, 0x1e, 0x3e,
  0x54, 0x6b, 0x2f, 0xbe, 0x38, 0xef, 0x0e, 0xbe, 0x40, 0x02, 0xef, 0x3c,
  0x04, 0xd9, 0x74, 0xbe, 0x82, 0xdf, 0xff, 0xff, 0x10, 0x00, 0x00, 0x00,
  0x09, 0x00, 0x00, 0x00, 0x1c, 0x00, 0x00, 0x00, 0x38, 0x00, 0x00, 0x00,
  0x04, 0x00, 0x00, 0x00, 0x10, 0x00, 0x00, 0x00, 0x04, 0x00, 0x00, 0x00,
  0x01, 0x00, 0x00, 0x00, 0x08, 0x00, 0x00, 0x00, 0x1b, 0x00, 0x00, 0x00,
  0x73, 0x65, 0x71, 0x75, 0x65, 0x6e, 0x74, 0x69, 0x61, 0x6c, 0x2f, 0x63,
  0x6f, 0x6e, 0x76, 0x32, 0x64, 0x5f, 0x31, 0x2f, 0x43, 0x6f, 0x6e, 0x76,
  0x32, 0x44, 0x31, 0x00, 0xf8, 0xde, 0xff, 0xff, 0xe6, 0xdf, 0xff, 0xff,
  0x04, 0x00, 0x00, 0x00, 0x40, 0x00, 0x00, 0x00, 0x00, 0x00, 0x00, 0x00,
  0x00, 0x00, 0x00, 0x00, 0x00, 0x00, 0x00, 0x00, 0x00, 0x00, 0x00, 0x00,
  0x00, 0x00, 0x00, 0x00, 0x00, 0x00, 0x00, 0x00, 0x00, 0x00, 0x00, 0x00,
  0x00, 0x00, 0x00, 0x00, 0x00, 0x00, 0x00, 0x00, 0x00, 0x00, 0x00, 0x00,
  0x00, 0x00, 0x00, 0x00, 0x00, 0x00, 0x00, 0x00, 0x00, 0x00, 0x00, 0x00,
  0x00, 0x00, 0x00, 0x00, 0x00, 0x00, 0x00, 0x00, 0x00, 0x00, 0x00, 0x00,
  0x1a, 0xe0, 0xff, 0xff, 0x10, 0x00, 0x00, 0x00, 0x08, 0x00, 0x00, 0x00,
  0x10, 0x00, 0x00, 0x00, 0x2c, 0x00, 0x00, 0x00, 0x01, 0x00, 0x00, 0x00,
  0x10, 0x00, 0x00, 0x00, 0x1a, 0x00, 0x00, 0x00, 0x73, 0x65, 0x71, 0x75,
  0x65, 0x6e, 0x74, 0x69, 0x61, 0x6c, 0x2f, 0x63, 0x6f, 0x6e, 0x76, 0x32,
  0x64, 0x5f, 0x31, 0x2f, 0x43, 0x6f, 0x6e, 0x76, 0x32, 0x44, 0x00, 0x00,
  0x84, 0xdf, 0xff, 0xff, 0x72, 0xe0, 0xff, 0xff, 0x04, 0x00, 0x00, 0x00,
  0x80, 0x01, 0x00, 0x00, 0x60, 0x8a, 0x56, 0x3c, 0xf6, 0xb3, 0xd4, 0x3d,
  0x2e, 0x19, 0x06, 0xbe, 0x44, 0x81, 0x57, 0xbe, 0xcb, 0x9a, 0x48, 0x3e,
  0x42, 0x3f, 0x36, 0xbe, 0x59, 0xc2, 0x49, 0x3e, 0x1a, 0x90, 0x51, 0xbe,
  0x07, 0xd5, 0x3c, 0x3e, 0x4f, 0xd4, 0x3d, 0x3e, 0x22, 0x6d, 0x06, 0xbe,
  0xc4, 0x6d, 0x61, 0x3d, 0x79, 0x37, 0x08, 0xbe, 0x54, 0x47, 0x4f, 0xbe,
  0x98, 0x90, 0x97, 0xbc, 0xc4, 0x0f, 0x2e, 0xbe, 0x20, 0x53, 0x6a, 0xbe,
  0x83, 0xd8, 0x14, 0xbe, 0x47, 0xda, 0x13, 0x3e, 0x67, 0xa9, 0x62, 0x3e,
  0xea, 0x62, 0xe2, 0x3d, 0x3c, 0xbe, 0x1c, 0xbe, 0xb0, 0x27, 0x70, 0x3c,
  0x60, 0x6c, 0x09, 0xbe, 0xa3, 0x62, 0x0f, 0x3e, 0xa3, 0x74, 0xf7, 0xbd,
  0x34, 0xa4, 0x9c, 0xbd, 0x80, 0x3f, 0x3f, 0xbe, 0xbd, 0x89, 0x12, 0x3e,
  0x37, 0xfe, 0x09, 0xbe, 0xe6, 0xd0, 0xd3, 0xbd, 0x71, 0x48, 0xe8, 0xbd,
  0x0d, 0x9f, 0xe3, 0xbd, 0x41, 0x67, 0x18, 0x3e, 0xa1, 0x20, 0x17, 0x3e,
  0x2e, 0x70, 0xf6, 0x3d, 0x1c, 0xe8, 0x0a, 0x3d, 0x64, 0x63, 0x4b, 0x3d,
  0xf4, 0x32, 0x29, 0x3d, 0xb3, 0x52, 0x16, 0x3e, 0xe1, 0x5e, 0x24, 0x3e,
  0x00, 0xe0, 0x02, 0xba, 0x0a, 0xd2, 0x49, 0xbe, 0x64, 0x24, 0x02, 0xbd,
  0xa4, 0x06, 0xf1, 0xbd, 0xa2, 0x3a, 0xb7, 0x3d, 0x8b, 0x99, 0x25, 0x3e,
  0xc0, 0xba, 0x59, 0x3b, 0x42, 0x85, 0x89, 0x3d, 0xae, 0xe4, 0xaf, 0xbd,
  0xcd, 0x21, 0x2a, 0xbe, 0x9b, 0x33, 0x26, 0x3e, 0xae, 0x27, 0x95, 0x3d,
  0xd9, 0x8f, 0x1f, 0x3e, 0x10, 0x71, 0x7b, 0x3c, 0x26, 0xbf, 0xf8, 0x3d,
  0x23, 0xd5, 0x2e, 0x3e, 0x53, 0x19, 0x26, 0x3e, 0x74, 0xb4, 0x48, 0x3d,
  0xfd, 0x7b, 0x16, 0xbe, 0x00, 0xa9, 0x91, 0xbb, 0x50, 0x68, 0x4c, 0xbd,
  0x00, 0x08, 0xa0, 0x38, 0xe8, 0xad, 0xc4, 0xbc, 0x16, 0x5b, 0xf3, 0x3d,
  0xe0, 0x48, 0x43, 0xbe, 0xb8, 0xec, 0xcc, 0xbc, 0xfd, 0x84, 0x63, 0xbe,
  0x9b, 0x7f, 0x5a, 0x3e, 0x46, 0x0e, 0xd4, 0x3d, 0xa9, 0xa0, 0x5f, 0xbe,
  0x98, 0x90, 0x4b, 0xbd, 0x19, 0x64, 0x43, 0x3e, 0xa2, 0x2f, 0x92, 0x3d,
  0xf5, 0xd7, 0x54, 0x3e, 0xf2, 0xeb, 0xe2, 0xbd, 0xd0, 0xa8, 0x37, 0xbe,
  0xc6, 0xc2, 0xc1, 0x3d, 0xf0, 0x58, 0x21, 0xbe, 0x42, 0x1d, 0xfd, 0x3d,
  0x1c, 0xcf, 0x38, 0x3d, 0xc2, 0xe1, 0x9e, 0x3d, 0x9e, 0x63, 0x82, 0x3d,
  0xcc, 0x50, 0x7c, 0xbd, 0x28, 0x4a, 0xce, 0x3c, 0xc9, 0xca, 0x2a, 0xbe,
  0x00, 0xee, 0x37, 0xbc, 0xfb, 0x92, 0x59, 0x3e, 0x18, 0xe7, 0x87, 0x3c,
  0xb7, 0xd9, 0x43, 0x3e, 0x07, 0x04, 0x36, 0x3e, 0xa0, 0x60, 0xab, 0x3b,
  0xb5, 0xd7, 0x6c, 0x3e, 0xeb, 0x83, 0x27, 0x3e, 0x01, 0xce, 0x06, 0x3e,
  0x0d, 0xf7, 0x4c, 0xbe, 0xe6, 0xe1, 0xff, 0xff, 0x10, 0x00, 0x00, 0x00,
  0x07, 0x00, 0x00, 0x00, 0x1c, 0x00, 0x00, 0x00, 0x38, 0x00, 0x00, 0x00,
  0x04, 0x00, 0x00, 0x00, 0x08, 0x00, 0x00, 0x00, 0x04, 0x00, 0x00, 0x00,
  0x03, 0x00, 0x00, 0x00, 0x01, 0x00, 0x00, 0x00, 0x19, 0x00, 0x00, 0x00,
  0x73, 0x65, 0x71, 0x75, 0x65, 0x6e, 0x74, 0x69, 0x61, 0x6c, 0x2f, 0x63,
  0x6f, 0x6e, 0x76, 0x32, 0x64, 0x2f, 0x43, 0x6f, 0x6e, 0x76, 0x32, 0x44,
  0x31, 0x00, 0x00, 0x00, 0x5c, 0xe1, 0xff, 0xff, 0x4a, 0xe2, 0xff, 0xff,
  0x04, 0x00, 0x00, 0x00, 0x20, 0x00, 0x00, 0x00, 0x00, 0x00, 0x00, 0x00,
  0x00, 0x00, 0x00, 0x00, 0x00, 0x00, 0x00, 0x00, 0x00, 0x00, 0x00, 0x00,
  0x00, 0x00, 0x00, 0x00, 0x00, 0x00, 0x00, 0x00, 0x00, 0x00, 0x00, 0x00,
  0x00, 0x00, 0x00, 0x00, 0x5e, 0xe2, 0xff, 0xff, 0x10, 0x00, 0x00, 0x00,
  0x06, 0x00, 0x00, 0x00, 0x10, 0x00, 0x00, 0x00, 0x2c, 0x00, 0x00, 0x00,
  0x01, 0x00, 0x00, 0x00, 0x08, 0x00, 0x00, 0x00, 0x18, 0x00, 0x00, 0x00,
  0x73, 0x65, 0x71, 0x75, 0x65, 0x6e, 0x74, 0x69, 0x61, 0x6c, 0x2f, 0x63,
  0x6f, 0x6e, 0x76, 0x32, 0x64, 0x2f, 0x43, 0x6f, 0x6e, 0x76, 0x32, 0x44,
  0x00, 0x00, 0x00, 0x00, 0xc8, 0xe1, 0xff, 0xff, 0xb6, 0xe2, 0xff, 0xff,
  0x04, 0x00, 0x00, 0x00, 0x40, 0x00, 0x00, 0x00, 0xbc, 0x22, 0xae, 0x3e,
  0xc4, 0xf6, 0x07, 0xbf, 0x62, 0xac, 0x91, 0x3e, 0x8c, 0x7d, 0xd0, 0xbe,
  0x0a, 0xc7, 0x13, 0x3f, 0xb8, 0xaa, 0xef, 0xbe, 0x48, 0xe2, 0x24, 0x3e,
  0xfa, 0xb6, 0xc8, 0x3e, 0xd1, 0x2f, 0xda, 0xbe, 0xf0, 0xd3, 0x3b, 0x3e,
  0x70, 0x49, 0x01, 0xbd, 0x60, 0x78, 0xc3, 0xbc, 0xc8, 0x89, 0xe0, 0x3e,
  0x66, 0xff, 0x00, 0xbf, 0xec, 0xe7, 0xe1, 0xbd, 0xfa, 0x52, 0x96, 0xbe,
  0xea, 0xe2, 0xff, 0xff, 0x10, 0x00, 0x00, 0x00, 0x05, 0x00, 0x00, 0x00,
  0x14, 0x00, 0x00, 0x00, 0x30, 0x00, 0x00, 0x00, 0x02, 0x00, 0x00, 0x00,
  0x01, 0x00, 0x00, 0x00, 0x10, 0x00, 0x00, 0x00, 0x19, 0x00, 0x00, 0x00,
  0x73, 0x65, 0x71, 0x75, 0x65, 0x6e, 0x74, 0x69, 0x61, 0x6c, 0x2f, 0x64,
  0x65, 0x6e, 0x73, 0x65, 0x5f, 0x31, 0x2f, 0x4d, 0x61, 0x74, 0x4d, 0x75,
  0x6c, 0x00, 0x00, 0x00, 0x58, 0xe2, 0xff, 0xff, 0x46, 0xe3, 0xff, 0xff,
  0x04, 0x00, 0x00, 0x00, 0x00, 0x1c, 0x00, 0x00, 0xf2, 0x68, 0xae, 0x3d,
  0xca, 0xe7, 0x90, 0x3d, 0x49, 0xbd, 0x29, 0xbe, 0xfd, 0xf9, 0x3b, 0x3e,
  0x9d, 0x44, 0x41, 0x3e, 0x44, 0x71, 0x26, 0x3d, 0x3c, 0x04, 0x33, 0xbe,
  0xe4, 0xce, 0x0b, 0x3d, 0xf8, 0xa7, 0x19, 0xbe, 0xb2, 0x49, 0xb6, 0x3d,
  0x6a, 0xd2, 0xe5, 0x3d, 0x85, 0x1b, 0xc7, 0xbd, 0xea, 0xc9, 0xcd, 0x3d,
  0x5e, 0xa1, 0xa8, 0x3d, 0x35, 0x6c, 0x2a, 0x3e, 0x60, 0x21, 0x01, 0xbd,
  0x59, 0x24, 0x57, 0xbe, 0x26, 0xa8, 0xf7, 0x3d, 0x38, 0xf3, 0x9a, 0x3c,
  0x0e, 0xc8, 0xda, 0x3d, 0x80, 0x82, 0x12, 0xbc, 0xaa, 0x90, 0xf9, 0x3d,
  0x56, 0xe2, 0xca, 0x3d, 0x6f, 0x27, 0x38, 0x3e, 0x57, 0x0d, 0x5b, 0x3e,
  0x87, 0xd1, 0xf7, 0xbd, 0xdb, 0x6c, 0x2f, 0xbe, 0x38, 0x90, 0xdc, 0x3c,
  0x7f, 0x86, 0x3c, 0x3e, 0x4f, 0xd0, 0xdd, 0xbd, 0xe6, 0x2c, 0xf7, 0x3d,
  0xb4, 0x70, 0x2b, 0xbe, 0x19, 0x2c, 0x13, 0x3e, 0x06, 0xbd, 0xf6, 0xbd,
  0xbb, 0xfe, 0x11, 0x3e, 0x01, 0x04, 0xf1, 0xbd, 0x9a, 0x79, 0xaf, 0x3d,
  0xc0, 0xd7, 0xc5, 0xbc, 0x8c, 0x87, 0x87, 0xbd, 0x8d, 0xe6, 0x56, 0x3e,
  0xd4, 0xe8, 0x26, 0xbe, 0xaa, 0x0c, 0xb9, 0x3d, 0x50, 0xa0, 0xc4, 0x3c,
  0xd0, 0xca, 0xfb, 0xbd, 0xd4, 0x6f, 0xdd, 0xbd, 0xf1, 0x69, 0x39, 0x3e,
  0x85, 0x3f, 0x2e, 0x3e, 0x61, 0x1a, 0x10, 0x3e, 0x65, 0x2c, 0x30, 0x3e,
  0x20, 0xee, 0xf1, 0xbc, 0x0a, 0xae, 0x2a, 0xbe, 0xb9, 0x79, 0x56, 0x3e,
  0x6c, 0xea, 0x64, 0x3d, 0xbe, 0x35, 0xb1, 0xbd, 0x07, 0x92, 0x37, 0x3e,
  0xb0, 0x33, 0x04, 0xbe, 0xd8, 0xd2, 0x83, 0xbc, 0x0a, 0x6c, 0xbd, 0x3d,
  0xc0, 0x60, 0x19, 0x3b, 0x62, 0x58, 0xbe, 0x3d, 0x05, 0x1b, 0x11, 0x3e,
  0x0c, 0x73, 0x0c, 0x3d, 0xf7, 0x6d, 0x51, 0x3e, 0xb0, 0x70, 0x0b, 0xbc,
  0xdb, 0x52, 0x16, 0x3e, 0x42, 0xf0, 0x81, 0x3d, 0xcd, 0xe6, 0x1f, 0x3e,
  0x93, 0xd5, 0x33, 0x3e, 0x3c, 0xda, 0x1c, 0xbd, 0x1a, 0xe7, 0xb3, 0x3d,
  0xb5, 0xb6, 0x53, 0x3e, 0x95, 0xd1, 0x02, 0x3e, 0x94, 0x53, 0x14, 0x3d,
  0xa0, 0x87, 0x7d, 0x3c, 0x91, 0x10, 0x0d, 0x3e, 0x2a, 0x92, 0x2d, 0xbe,
  0xf6, 0xd3, 0x4a, 0xbe, 0x00, 0x5b, 0x43, 0x3a, 0x4c, 0xc3, 0x2d, 0x3d,
  0xd6, 0x4b, 0x99, 0x3d, 0x12, 0xd1, 0x18, 0xbe, 0x71, 0x06, 0x29, 0x3e,
  0x70, 0xff, 0x49, 0x3c, 0xca, 0xc0, 0xcb, 0x3d, 0x62, 0xef, 0x39, 0xbe,
  0xd8, 0x7c, 0xb0, 0xbd, 0x60, 0x8d, 0xa2, 0x3b, 0x2e, 0x18, 0xf6, 0x3d,
  0x31, 0x82, 0x21, 0x3e, 0x42, 0x73, 0xde, 0x3d, 0xeb, 0xaa, 0xec, 0xbd,
  0x8f, 0x7d, 0x21, 0x3e, 0x3a, 0x6e, 0xda, 0x3d, 0x0d, 0x2d, 0x4b, 0x3e,
  0x12, 0x84, 0xe7, 0xbd, 0xd4, 0x58, 0x39, 0x3d, 0x1c, 0xf7, 0x2b, 0xbd,
  0xb9, 0x4b, 0x3f, 0x3e, 0xad, 0xb9, 0xeb, 0xbd, 0xf2, 0xa9, 0x4a, 0xbe,
  0x27, 0x06, 0x5b, 0x3e, 0xdc, 0x0a, 0x0d, 0xbe, 0x21, 0x3f, 0x2b, 0x3e,
  0x2e, 0xb3, 0xeb, 0x3d, 0xa2, 0xcd, 0x95, 0x3d, 0x5d, 0x70, 0x47, 0x3e,
  0x39, 0x1d, 0x1d, 0xbe, 0x46, 0x10, 0x1a, 0xbe, 0xe8, 0xc5, 0xf3, 0xbc,
  0xe5, 0x67, 0x5c, 0x3e, 0x90, 0xb0, 0x5b, 0xbd, 0xe7, 0x90, 0x50, 0xbe,
  0xd7, 0xf3, 0x07, 0x3e, 0xa5, 0x23, 0x45, 0xbe, 0x5a, 0x72, 0xbc, 0xbd,
  0xe0, 0x67, 0xaf, 0x3b, 0xb8, 0x4d, 0x2f, 0xbe, 0x27, 0x70, 0x3b, 0xbe,
  0x1a, 0xca, 0xad, 0x3d, 0xf0, 0x39, 0x4a, 0x3c, 0x5b, 0xbb, 0x54, 0x3e,
  0xe0, 0x47, 0x64, 0xbd, 0x36, 0x96, 0xf4, 0x3d, 0x78, 0xce, 0x02, 0xbe,
  0x09, 0x76, 0x0b, 0x3e, 0x0f, 0x74, 0x11, 0x3e, 0xb6, 0xf7, 0x1c, 0xbe,
  0xe0, 0x67, 0xd5, 0xbb, 0x11, 0xbf, 0x35, 0xbe, 0x25, 0x0f, 0x5d, 0x3e,
  0x53, 0x34, 0x1e, 0x3e, 0xce, 0xec, 0x52, 0xbe, 0xc0, 0x5b, 0x2b, 0x3b,
  0x64, 0xab, 0x42, 0x3d, 0xf0, 0x2b, 0xac, 0xbc, 0x9d, 0x0c, 0x1f, 0x3e,
  0x0d, 0x14, 0x35, 0xbe, 0xa9, 0x05, 0x5b, 0x3e, 0xcd, 0x67, 0x38, 0xbe,
  0x40, 0x97, 0x34, 0xbe, 0x80, 0xd7, 0x12, 0xbb, 0x62, 0x17, 0x83, 0x3d,
  0x11, 0xe9, 0x47, 0x3e, 0xd1, 0xba, 0x56, 0x3e, 0x10, 0xd0, 0x10, 0xbd,
  0x63, 0xf8, 0x3d, 0x3e, 0xe7, 0x01, 0x27, 0x3e, 0xfe, 0x85, 0xd7, 0x3d,
  0x69, 0x55, 0x09, 0x3e, 0x57, 0x6e, 0xcd, 0xbd, 0x7f, 0x99, 0x15, 0xbe,
  0xd7, 0x4b, 0x5b, 0x3e, 0x4b, 0xb4, 0x4e, 0x3e, 0x08, 0x51, 0xe4, 0x3c,
  0x6a, 0x83, 0x8c, 0x3d, 0x70, 0xfc, 0xed, 0xbc, 0x8f, 0x76, 0x50, 0x3e,
  0xda, 0xc9, 0x14, 0xbe, 0xe0, 0xe4, 0x7b, 0xbc, 0xfc, 0xf6, 0x28, 0x3d,
  0x7f, 0x54, 0xf7, 0xbd, 0x80, 0xe4, 0xe8, 0x3a, 0x60, 0xcf, 0x88, 0x3c,
  0x2d, 0x88, 0x20, 0x3e, 0xfb, 0x4f, 0x01, 0x3e, 0x4c, 0x9b, 0x1d, 0xbe,
  0x80, 0x0b, 0x4c, 0xbe, 0xa0, 0x85, 0xf4, 0xbc, 0x90, 0x2c, 0xbe, 0xbd,
  0x6b, 0x65, 0x07, 0x3e, 0x84, 0xc1, 0x0e, 0xbd, 0xda, 0xeb, 0xc1, 0x3d,
  0x05, 0x53, 0x36, 0xbe, 0x88, 0xad, 0x9c, 0xbc, 0xe0, 0x05, 0x48, 0xbe,
  0x3a, 0x73, 0x05, 0xbe, 0x11, 0x6f, 0x30, 0xbe, 0x5e, 0x0b, 0x83, 0x3d,
  0x3c, 0xc5, 0x4f, 0x3d, 0x24, 0x7c, 0x29, 0xbe, 0x30, 0x78, 0x30, 0xbc,
  0xf0, 0x95, 0xe2, 0xbc, 0x0e, 0xca, 0x57, 0xbe, 0x18, 0xa3, 0x20, 0xbe,
  0x3e, 0x8a, 0xd0, 0x3d, 0x00, 0xf8, 0xca, 0x38, 0xdb, 0x92, 0x1d, 0x3e,
  0xa0, 0x61, 0x71, 0xbd, 0x71, 0x64, 0x23, 0x3e, 0x2c, 0x07, 0x35, 0x3d,
  0x40, 0x85, 0xc4, 0xbc, 0x58, 0x5a, 0x9a, 0x3c, 0xd4, 0x33, 0x2c, 0x3d,
  0x07, 0x72, 0x56, 0x3e, 0xe0, 0x66, 0x07, 0x3d, 0x60, 0x9f, 0x61, 0xbc,
  0xe8, 0x56, 0xb2, 0xbc, 0x52, 0x4d, 0x5c, 0xbe, 0x90, 0x0f, 0x0a, 0xbe,
  0xba, 0x6b, 0x97, 0x3d, 0xfe, 0xaa, 0xc0, 0x3d, 0x66, 0x9c, 0x28, 0xbe,
  0x70, 0x16, 0x04, 0xbe, 0xb2, 0x4a, 0xca, 0x3d, 0x53, 0xaa, 0x47, 0x3e,
  0x3a, 0x92, 0x9c, 0xbd, 0x8d, 0xe6, 0x57, 0xbe, 0xa0, 0x7e, 0x85, 0x3b,
  0x85, 0xd9, 0x1b, 0xbe, 0x69, 0xc9, 0x50, 0x3e, 0x5f, 0x58, 0x06, 0x3e,
  0xe0, 0x22, 0x80, 0x3b, 0x4e, 0xe5, 0xda, 0x3d, 0x45, 0x33, 0x0c, 0x3e,
  0xd8, 0x60, 0xbf, 0xbd, 0x80, 0xe6, 0xc5, 0x3a, 0x86, 0x16, 0xf7, 0x3d,
  0x80, 0xda, 0x89, 0x3a, 0x06, 0xa5, 0xb7, 0x3d, 0x88, 0xc5, 0x56, 0xbe,
  0x63, 0xf7, 0x07, 0x3e, 0xae, 0x89, 0xf0, 0xbd, 0xec, 0x72, 0x47, 0xbe,
  0x06, 0xfa, 0x8b, 0xbd, 0x40, 0xee, 0x2f, 0xbd, 0xb1, 0xbf, 0x14, 0xbe,
  0xb9, 0x16, 0x0f, 0xbe, 0x7e, 0xc2, 0x48, 0xbe, 0x28, 0x03, 0x00, 0xbd,
  0x70, 0xa3, 0xfd, 0xbc, 0x3f, 0x1b, 0x0a, 0x3e, 0x1d, 0x88, 0x57, 0x3e,
  0x86, 0x38, 0xb8, 0xbd, 0x1d, 0x7c, 0x14, 0xbe, 0x10, 0xbb, 0xb8, 0xbc,
  0x69, 0x3e, 0x39, 0x3e, 0x2a, 0x2a, 0xe7, 0x3d, 0x8f, 0x8e, 0xf9, 0xbd,
  0x74, 0xa9, 0x0f, 0x3d, 0x5f, 0x1f, 0x29, 0x3e, 0x3d, 0xc4, 0x1c, 0x3e,
  0xec, 0x4f, 0x99, 0xbd, 0x80, 0x38, 0xd5, 0x3c, 0x8b, 0xde, 0x40, 0xbe,
  0x39, 0x11, 0x1e, 0x3e, 0x63, 0x13, 0x1b, 0x3e, 0x57, 0xcf, 0x4e, 0xbe,
  0xb8, 0xac, 0x16, 0xbd, 0x60, 0xa8, 0x27, 0xbd, 0x8a, 0x47, 0xa2, 0xbd,
  0xdd, 0x57, 0x58, 0x3e, 0x00, 0x5f, 0x99, 0x3b, 0xc7, 0xb2, 0x5b, 0x3e,
  0x38, 0xf1, 0x6b, 0xbd, 0x47, 0x7c, 0x55, 0x3e, 0x5a, 0xab, 0xff, 0x3d,
  0x38, 0x6c, 0x6e, 0xbd, 0xd0, 0x61, 0x5a, 0x3c, 0xf0, 0xcd, 0xe9, 0xbd,
  0x82, 0xab, 0x12, 0xbe, 0x1e, 0x6c, 0xa3, 0x3d, 0x44, 0x16, 0x3e, 0xbe,
  0xa1, 0xc2, 0x46, 0x3e, 0x28, 0xb5, 0xc4, 0xbd, 0x30, 0x2e, 0x02, 0x3c,
  0x0c, 0x88, 0x00, 0x3d, 0x22, 0x39, 0x96, 0xbd, 0xb8, 0x4b, 0x98, 0x3c,
  0x13, 0xed, 0x2e, 0x3e, 0x56, 0x1f, 0x97, 0x3d, 0x33, 0x62, 0x40, 0x3e,
  0x46, 0x13, 0xf7, 0x3d, 0x37, 0x7b, 0x08, 0x3e, 0x63, 0x4b, 0x1c, 0x3e,
  0xbe, 0x62, 0xf6, 0x3d, 0xe7, 0x1a, 0x5a, 0x3e, 0x7a, 0x82, 0xf4, 0x3d,
  0x5a, 0x02, 0x44, 0xbe, 0x6c, 0x42, 0x02, 0xbd, 0x1b, 0x3f, 0x59, 0x3e,
  0xd0, 0x92, 0x53, 0xbe, 0x4a, 0x83, 0x8c, 0x3d, 0xac, 0x1e, 0xbf, 0xbd,
  0xbb, 0x24, 0xfa, 0xbd, 0x8d, 0x9e, 0x57, 0xbe, 0x26, 0xb5, 0x88, 0x3d,
  0x98, 0x49, 0x56, 0xbe, 0x00, 0x9d, 0x56, 0x3a, 0x80, 0x94, 0xc3, 0xba,
  0x30, 0xe6, 0x63, 0x3c, 0x5a, 0x5a, 0xf0, 0x3d, 0x8c, 0xc8, 0x70, 0xbd,
  0x9a, 0x5f, 0x8e, 0xbd, 0x95, 0x0f, 0xe5, 0xbd, 0x92, 0xab, 0x98, 0x3d,
  0x2c, 0xfc, 0x22, 0xbe, 0xa2, 0x1d, 0xb1, 0x3d, 0x32, 0xda, 0xb5, 0x3d,
  0xa3, 0x91, 0xc9, 0xbd, 0xfb, 0xa8, 0x54, 0x3e, 0x98, 0x4e, 0x1e, 0xbe,
  0xbc, 0x72, 0x13, 0x3d, 0xaa, 0xf2, 0xa2, 0x3d, 0x98, 0xa8, 0xa4, 0x3c,
  0xd1, 0x72, 0x5d, 0x3e, 0xc6, 0xd4, 0x85, 0xbd, 0xc3, 0x1d, 0x34, 0xbe,
  0x07, 0x37, 0x18, 0x3e, 0x75, 0xbe, 0x4d, 0x3e, 0x15, 0xb2, 0x44, 0x3e,
  0x68, 0xdf, 0xe6, 0x3c, 0x79, 0x14, 0x51, 0x3e, 0xbd, 0xf0, 0x4c, 0xbe,
  0x68, 0xa1, 0xf3, 0x3c, 0x02, 0xac, 0x90, 0xbd, 0x30, 0xa4, 0x4d, 0x3c,
  0xe8, 0xdd, 0xd5, 0xbc, 0x4b, 0x24, 0x19, 0x3e, 0x61, 0x19, 0x17, 0x3e,
  0x5e, 0xed, 0x99, 0x3d, 0xd1, 0x0c, 0x00, 0x3e, 0x16, 0x07, 0x8d, 0xbd,
  0x9e, 0x64, 0xe1, 0x3d, 0x8c, 0xc6, 0x56, 0xbd, 0x5a, 0xa4, 0xf8, 0x3d,
  0x8b, 0xa9, 0x58, 0xbe, 0xc3, 0x3b, 0x0b, 0x3e, 0xfa, 0x2d, 0xf8, 0xbd,
  0x93, 0x3b, 0x15, 0x3e, 0xcf, 0x76, 0x1c, 0x3e, 0x14, 0x14, 0x2a, 0x3d,
  0x9c, 0xf7, 0x1b, 0xbd, 0xb1, 0x54, 0xe6, 0xbd, 0xa1, 0x55, 0x3d, 0x3e,
  0x19, 0xa9, 0x1f, 0xbe, 0xfe, 0xcd, 0xc2, 0x3d, 0x5c, 0x85, 0x0d, 0xbe,
  0x48, 0x77, 0x07, 0x3d, 0xce, 0x5d, 0xb9, 0x3d, 0x52, 0x79, 0xfc, 0x3d,
  0x26, 0xa2, 0xa8, 0xbd, 0xa5, 0x9e, 0x11, 0x3e, 0xdb, 0x50, 0x17, 0x3e,
  0xf2, 0x28, 0xde, 0x3d, 0x40, 0xd3, 0xf5, 0xbd, 0xb8, 0x86, 0xaa, 0x3c,
  0xda, 0x2b, 0xd5, 0x3d, 0x1b, 0x55, 0x00, 0x3e, 0xb0, 0x3f, 0xc0, 0xbc,
  0xd4, 0x29, 0x7a, 0x3d, 0x98, 0x77, 0x89, 0x3c, 0x1c, 0x7a, 0x6f, 0x3d,
  0x2e, 0x1a, 0xc9, 0xbd, 0xd0, 0xcb, 0x01, 0xbe, 0x37, 0xf8, 0xfc, 0xbd,
  0x0f, 0x2b, 0x43, 0x3e, 0xd6, 0x11, 0xee, 0x3d, 0x18, 0xe9, 0xa9, 0x3c,
  0xc0, 0x03, 0x7d, 0xbb, 0x55, 0x35, 0x1a, 0x3e, 0x45, 0x93, 0x00, 0xbe,
  0xe1, 0x54, 0x3e, 0x3e, 0x64, 0xec, 0x7c, 0x3d, 0x47, 0x3a, 0x44, 0x3e,
  0xc9, 0x4f, 0xda, 0xbd, 0xd1, 0x4c, 0x01, 0xbe, 0x04, 0x8b, 0x54, 0x3d,
  0xf0, 0xf3, 0xc5, 0xbd, 0x26, 0x78, 0xd2, 0xbd, 0x4d, 0xf2, 0x14, 0x3e,
  0x82, 0xc7, 0xba, 0x3d, 0xd2, 0xa6, 0x19, 0xbe, 0xd5, 0xf9, 0x3a, 0xbe,
  0x7d, 0x54, 0x22, 0x3e, 0xaa, 0x20, 0xa6, 0x3d, 0x05, 0x4d, 0x15, 0x3e,
  0x65, 0x12, 0x40, 0x3e, 0xb2, 0x2a, 0x97, 0xbd, 0xfd, 0x3a, 0x17, 0x3e,
  0xc0, 0xe2, 0x00, 0xbb, 0xd8, 0x6a, 0x59, 0xbe, 0x96, 0xb0, 0x83, 0xbd,
  0x79, 0xe0, 0x54, 0xbe, 0x26, 0xba, 0xcf, 0x3d, 0xce, 0xa2, 0xe1, 0x3d,
  0x16, 0x9b, 0x9e, 0x3d, 0xcc, 0x0b, 0x30, 0x3d, 0x2a, 0x66, 0xc1, 0x3d,
  0x80, 0xc8, 0xb5, 0xba, 0xa1, 0x6d, 0x4c, 0x3e, 0x00, 0x8d, 0xd1, 0xba,
  0x80, 0x22, 0x6b, 0xbd, 0xfc, 0x3f, 0x73, 0xbd, 0xc8, 0x49, 0xf6, 0x3c,
  0xfe, 0xaa, 0xbc, 0xbd, 0x75, 0xa2, 0x54, 0x3e, 0xa8, 0xea, 0xa5, 0x3c,
  0x33, 0x50, 0x5c, 0x3e, 0xea, 0xce, 0x8a, 0xbd, 0xc0, 0xf9, 0xe0, 0x3b,
  0xa6, 0x49, 0xac, 0x3d, 0xc3, 0xf8, 0x16, 0x3e, 0xf2, 0xdb, 0xf0, 0x3d,
  0x96, 0x0b, 0xc6, 0x3d, 0x45, 0xfd, 0xc2, 0xbd, 0xbd, 0x2a, 0x41, 0x3e,
  0xe4, 0x3e, 0x66, 0x3d, 0x38, 0x60, 0xbc, 0xbd, 0xbc, 0x43, 0x73, 0x3d,
  0xd4, 0xbd, 0xb9, 0xbd, 0xf8, 0x6d, 0xa5, 0xbd, 0x7a, 0xd3, 0xbf, 0x3d,
  0xd4, 0x31, 0x77, 0x3d, 0xc8, 0x75, 0xf4, 0xbd, 0xd8, 0x96, 0x58, 0xbd,
  0x74, 0x68, 0x7b, 0x3d, 0x48, 0x5c, 0xa7, 0xbd, 0xe0, 0x49, 0xbb, 0xbc,
  0xfb, 0x78, 0x1a, 0x3e, 0x52, 0xc0, 0xf0, 0xbd, 0x29, 0xaf, 0x0d, 0xbe,
  0xdc, 0x78, 0x56, 0xbe, 0x85, 0x42, 0x4f, 0xbe, 0xbc, 0x24, 0xaf, 0xbd,
  0xa5, 0xae, 0x43, 0xbe, 0xc0, 0x78, 0x27, 0xbe, 0xbb, 0xf2, 0x4c, 0x3e,
  0x52, 0x20, 0xab, 0x3d, 0x41, 0x4b, 0x3e, 0xbe, 0xa6, 0x20, 0x51, 0xbe,
  0xd0, 0x88, 0x08, 0xbe, 0x58, 0x56, 0xd3, 0xbc, 0x75, 0x3a, 0xe4, 0xbd,
  0x1c, 0x6d, 0x1f, 0xbe, 0x81, 0xe4, 0xfd, 0xbd, 0x92, 0x1d, 0xae, 0xbd,
  0x07, 0xfd, 0x3b, 0x3e, 0xb9, 0xda, 0x4f, 0x3e, 0x3e, 0x78, 0x93, 0x3d,
  0x94, 0x9b, 0x29, 0xbe, 0xe7, 0x3a, 0x11, 0x3e, 0xa8, 0xd8, 0xb0, 0xbc,
  0xd8, 0xa5, 0x9c, 0xbd, 0xd4, 0x5c, 0x16, 0x3d, 0x96, 0xc9, 0xe5, 0xbd,
  0x14, 0x0b, 0xe6, 0xbd, 0x10, 0xaa, 0x67, 0x3c, 0x1c, 0x4c, 0x75, 0x3d,
  0x40, 0x7e, 0x13, 0xbc, 0x80, 0x10, 0x42, 0xbb, 0x52, 0xbf, 0xd6, 0x3d,
  0x54, 0x98, 0x12, 0xbe, 0xf2, 0xf1, 0xdb, 0x3d, 0x6d, 0x7d, 0x4a, 0xbe,
  0x5c, 0xaf, 0x05, 0xbe, 0xa5, 0x99, 0x15, 0x3e, 0xe3, 0x56, 0x23, 0xbe,
  0xcc, 0xaf, 0x2d, 0xbd, 0x49, 0x04, 0xe6, 0xbd, 0x7a, 0x86, 0x20, 0xbe,
  0xe4, 0xa8, 0x9e, 0xbd, 0x84, 0x4a, 0x1e, 0x3d, 0x27, 0x35, 0x48, 0x3e,
  0xa2, 0x6d, 0x07, 0xbe, 0x48, 0xba, 0x46, 0xbd, 0x67, 0x72, 0xc6, 0xbd,
  0xe5, 0x72, 0x51, 0x3e, 0x12, 0x57, 0xab, 0x3d, 0x28, 0x16, 0xc2, 0xbc,
  0x24, 0x32, 0x0f, 0x3d, 0xf4, 0x0d, 0x57, 0x3d, 0xe3, 0x0d, 0xf7, 0xbd,
  0x16, 0x0d, 0x81, 0x3d, 0xb0, 0x41, 0xaf, 0xbd, 0x50, 0xca, 0x2d, 0x3c,
  0x8e, 0x0f, 0xe4, 0x3d, 0xaa, 0x97, 0xea, 0x3d, 0xa8, 0x58, 0xf8, 0x3c,
  0xe0, 0x84, 0x4c, 0xbc, 0x64, 0x27, 0x30, 0x3d, 0xbe, 0xca, 0xcb, 0x3d,
  0xfc, 0xc1, 0x8d, 0xbd, 0x1f, 0x5b, 0x42, 0xbe, 0x8c, 0x68, 0x55, 0xbe,
  0x04, 0xfe, 0x52, 0xbe, 0x9e, 0x81, 0x94, 0x3d, 0x68, 0xac, 0x14, 0xbe,
  0xe8, 0xa3, 0x91, 0xbd, 0x66, 0x6d, 0xf4, 0x3d, 0x70, 0x46, 0xbc, 0x3c,
  0x1d, 0xd5, 0x3b, 0x3e, 0x13, 0xb1, 0x11, 0x3e, 0xd4, 0xcd, 0x3d, 0x3d,
  0xf9, 0x88, 0x12, 0x3e, 0xf7, 0xbc, 0x13, 0x3e, 0x11, 0x76, 0x55, 0xbe,
  0x38, 0x63, 0xb6, 0xbc, 0xb0, 0xd9, 0x54, 0x3c, 0x64, 0xff, 0x2b, 0x3d,
  0x10, 0x1a, 0x84, 0x3c, 0xf9, 0x59, 0x21, 0x3e, 0xb0, 0x9b, 0x24, 0xbe,
  0x26, 0x10, 0x17, 0xbe, 0x72, 0xee, 0x1c, 0xbe, 0xac, 0xa3, 0x61, 0x3d,
  0xac, 0x0f, 0x02, 0xbe, 0xee, 0x84, 0xa7, 0xbd, 0x74, 0xe3, 0x3a, 0xbe,
  0x04, 0x28, 0x4e, 0x3d, 0x88, 0xf8, 0x5d, 0xbd, 0xe8, 0xb2, 0x0e, 0xbd,
  0xf4, 0xd4, 0x31, 0xbe, 0x59, 0xc0, 0x32, 0xbe, 0xc7, 0x33, 0x43, 0x3e,
  0xa9, 0x1f, 0x3a, 0x3e, 0x63, 0xe1, 0x5a, 0x3e, 0xf0, 0x0c, 0x67, 0xbd,
  0x54, 0x00, 0x19, 0xbe, 0xff, 0x2b, 0x48, 0x3e, 0xe5, 0xa3, 0x16, 0xbe,
  0x70, 0x19, 0x56, 0xbc, 0xe6, 0xe4, 0x47, 0xbe, 0x46, 0xd1, 0x96, 0x3d,
  0xf0, 0x72, 0x9a, 0xbc, 0x35, 0x53, 0x3b, 0x3e, 0xc4, 0xe5, 0x3b, 0x3d,
  0xca, 0x45, 0x10, 0xbe, 0x4b, 0x5f, 0x40, 0xbe, 0xbd, 0xb3, 0x3f, 0x3e,
  0xe2, 0xbf, 0x5a, 0xbe, 0x40, 0x70, 0x07, 0x3d, 0x47, 0xf6, 0x58, 0x3e,
  0x20, 0xc7, 0x4a, 0xbd, 0x36, 0xb8, 0x9a, 0x3d, 0x15, 0xe7, 0x1c, 0xbe,
  0xf2, 0x69, 0x9d, 0x3d, 0x8c, 0x01, 0x0c, 0x3d, 0x3b, 0xec, 0x54, 0x3e,
  0x22, 0x6d, 0xe9, 0xbd, 0xf8, 0xa4, 0xe1, 0x3c, 0xc4, 0xe8, 0x37, 0xbe,
  0xff, 0xbc, 0x2e, 0x3e, 0x13, 0xd3, 0x32, 0x3e, 0xe0, 0xe6, 0xa4, 0xbb,
  0x62, 0x42, 0x49, 0xbe, 0x6c, 0xbb, 0x5d, 0xbd, 0x74, 0x2f, 0x6c, 0x3d,
  0xca, 0x67, 0x82, 0x3d, 0x26, 0x9d, 0xa4, 0xbd, 0x6f, 0x9c, 0x08, 0xbe,
  0x50, 0x27, 0xb1, 0xbd, 0xea, 0x02, 0x0f, 0xbe, 0x84, 0xfd, 0x1e, 0xbd,
  0x6e, 0x2a, 0xdf, 0x3d, 0xe9, 0xa4, 0x23, 0x3e, 0x78, 0xda, 0x0b, 0xbd,
  0x80, 0x1f, 0xfd, 0xbb, 0xc4, 0x99, 0x35, 0x3d, 0x4e, 0x26, 0xed, 0x3d,
  0x60, 0x45, 0x04, 0xbd, 0x4a, 0x09, 0x27, 0xbe, 0xaa, 0x7e, 0x88, 0x3d,
  0x74, 0x4a, 0x40, 0x3d, 0xd5, 0xe4, 0x23, 0xbe, 0x54, 0xac, 0x5d, 0xbe,
  0x47, 0x9e, 0xe6, 0xbd, 0xb7, 0x0a, 0x20, 0xbe, 0x64, 0xef, 0x1b, 0xbd,
  0x47, 0xae, 0x4d, 0xbe, 0xac, 0x24, 0x09, 0xbd, 0xc7, 0x31, 0x03, 0xbe,
  0xc6, 0xc1, 0xb0, 0x3d, 0x44, 0xca, 0x20, 0xbe, 0x3f, 0xe4, 0xde, 0xbd,
  0x19, 0xe8, 0x11, 0x3e, 0x8c, 0x28, 0x65, 0x3d, 0x49, 0x68, 0x47, 0x3e,
  0xc8, 0xc3, 0x05, 0x3d, 0x7f, 0x39, 0x26, 0x3e, 0x76, 0xbe, 0xbe, 0xbd,
  0x80, 0x14, 0xce, 0x3b, 0x95, 0x73, 0x59, 0x3e, 0xa8, 0x7b, 0x48, 0xbe,
  0xbd, 0x49, 0x2c, 0xbe, 0x85, 0xcf, 0x30, 0x3e, 0xc5, 0xbe, 0x40, 0xbe,
  0x58, 0x33, 0x54, 0xbd, 0xc6, 0xf0, 0x17, 0xbe, 0x88, 0x68, 0x2b, 0xbd,
  0x11, 0x75, 0x1a, 0x3e, 0x4e, 0xc5, 0xdc, 0xbd, 0x33, 0xeb, 0x4d, 0x3e,
  0x9f, 0x61, 0x12, 0x3e, 0x0d, 0x9e, 0x3d, 0x3e, 0x94, 0x27, 0x28, 0x3d,
  0xa0, 0xeb, 0x62, 0xbd, 0x53, 0x0f, 0x31, 0x3e, 0xa2, 0xe3, 0xb9, 0xbd,
  0x1d, 0xc9, 0x25, 0x3e, 0x26, 0xa7, 0x53, 0xbe, 0x4c, 0x06, 0x1c, 0x3d,
  0xb0, 0xa7, 0x05, 0xbd, 0x17, 0x8c, 0xf0, 0xbd, 0x36, 0x48, 0xe9, 0x3d,
  0x9b, 0x36, 0xe5, 0xbd, 0xd9, 0x94, 0x11, 0xbe, 0x0f, 0x7a, 0x2e, 0xbe,
  0xdb, 0xe2, 0x18, 0x3e, 0xc4, 0xb5, 0x79, 0x3d, 0xfc, 0xf8, 0x40, 0xbe,
  0xf2, 0xf6, 0x00, 0xbe, 0x38, 0x06, 0x44, 0xbd, 0xe6, 0xa6, 0xbd, 0x3d,
  0xc0, 0x49, 0x38, 0xbe, 0x62, 0x04, 0x5c, 0xbe, 0xc3, 0x5d, 0x35, 0x3e,
  0x4e, 0xcb, 0x29, 0xbe, 0x81, 0x8f, 0x26, 0xbe, 0x8f, 0x6f, 0x36, 0xbe,
  0xf5, 0x88, 0x1a, 0x3e, 0x44, 0xbe, 0xb2, 0xbd, 0x91, 0xe7, 0x3d, 0x3e,
  0x16, 0xb9, 0xd1, 0x3d, 0xd1, 0x5c, 0x55, 0xbe, 0xae, 0xf0, 0xe1, 0x3d,
  0x90, 0x55, 0x0e, 0x3c, 0x4a, 0x12, 0xb3, 0x3d, 0x34, 0x59, 0x19, 0x3d,
  0xc6, 0x18, 0xd9, 0xbd, 0xa3, 0xdb, 0x05, 0xbe, 0x06, 0xa3, 0x27, 0xbe,
  0xa7, 0x99, 0x4f, 0xbe, 0xd0, 0xeb, 0x98, 0xbd, 0x04, 0xbc, 0x03, 0xbe,
  0x56, 0x10, 0xdb, 0x3d, 0x0a, 0x74, 0xa8, 0x3d, 0x9e, 0x33, 0x9b, 0x3d,
  0xee, 0x61, 0xe8, 0x3d, 0xa0, 0x58, 0x6b, 0xbd, 0x86, 0x81, 0xd7, 0xbd,
  0x50, 0x40, 0x3c, 0xbd, 0x36, 0x8e, 0xcb, 0x3d, 0xf9, 0x99, 0x18, 0xbe,
  0xf9, 0xe8, 0x07, 0x3e, 0x41, 0x52, 0x25, 0xbe, 0xd8, 0x0a, 0x55, 0xbe,
  0xa4, 0x9d, 0xa0, 0xbd, 0x03, 0xb4, 0x3f, 0x3e, 0x3f, 0x15, 0x48, 0xbe,
  0x87, 0xe5, 0xf7, 0xbd, 0xb6, 0x7d, 0xfd, 0x3d, 0xcc, 0xed, 0x25, 0x3d,
  0x06, 0x5a, 0xef, 0x3d, 0xe0, 0x91, 0x5a, 0xbe, 0xf3, 0x87, 0x4c, 0x3e,
  0xb4, 0x77, 0x1d, 0xbd, 0xc8, 0xf5, 0x39, 0xbe, 0xea, 0x9d, 0xda, 0x3d,
  0x98, 0x3b, 0x9f, 0x3c, 0x72, 0xed, 0x05, 0xbe, 0xb1, 0xae, 0x59, 0xbe,
  0x5b, 0xcd, 0x3a, 0x3e, 0xb9, 0xda, 0x32, 0xbe, 0x4c, 0x2c, 0x37, 0xbd,
  0x1a, 0x3c, 0xb0, 0x3d, 0x5c, 0xd8, 0x3c, 0x3d, 0x75, 0x7c, 0x22, 0x3e,
  0x93, 0xf0, 0x03, 0x3e, 0x5b, 0x49, 0x5c, 0xbe, 0x9d, 0xdf, 0x52, 0x3e,
  0x69, 0xba, 0x0e, 0xbe, 0x6a, 0x5d, 0x1c, 0xbe, 0x40, 0xf6, 0x43, 0x3b,
  0x18, 0x37, 0x3e, 0xbd, 0x39, 0xc6, 0x26, 0x3e, 0xe1, 0x71, 0x5c, 0x3e,
  0xce, 0xfc, 0xab, 0x3d, 0x0c, 0x5e, 0x23, 0xbd, 0x6b, 0x65, 0x20, 0xbe,
  0x50, 0x49, 0x56, 0x3c, 0x24, 0x6d, 0xe8, 0xbd, 0x93, 0x5e, 0xec, 0xbd,
  0xe4, 0x0f, 0x15, 0xbe, 0xcc, 0xed, 0x06, 0xbd, 0xbd, 0xbc, 0x4d, 0x3e,
  0x70, 0x1d, 0x49, 0xbc, 0xc9, 0x6a, 0x27, 0x3e, 0x8b, 0xfc, 0x31, 0x3e,
  0x85, 0xce, 0x30, 0x3e, 0xc6, 0x11, 0xa4, 0xbd, 0x8a, 0xbb, 0xb5, 0x3d,
  0x20, 0x2a, 0x2d, 0xbc, 0x9a, 0xea, 0xfc, 0x3d, 0xab, 0xd0, 0x13, 0xbe,
  0xcb, 0xd6, 0x00, 0x3e, 0x76, 0x04, 0x01, 0xbe, 0x88, 0xd9, 0x93, 0x3c,
  0x22, 0x8d, 0xca, 0x3d, 0xe4, 0x3c, 0x3a, 0xbe, 0x80, 0x8c, 0x96, 0x3c,
  0x46, 0x7b, 0xb4, 0x3d, 0x00, 0x34, 0x02, 0xba, 0xdb, 0xfe, 0x38, 0x3e,
  0x10, 0xc3, 0x2d, 0xbd, 0x45, 0x30, 0x30, 0x3e, 0x50, 0x72, 0xfe, 0x3c,
  0xf7, 0x48, 0x21, 0xbe, 0xb9, 0xda, 0x59, 0xbe, 0x1b, 0x1d, 0xe9, 0xbd,
  0xb2, 0x4d, 0xde, 0x3d, 0x8c, 0x57, 0x68, 0xbd, 0x60, 0xa2, 0x03, 0xbc,
  0x59, 0xd4, 0x51, 0x3e, 0x00, 0x05, 0x1d, 0xbe, 0xd2, 0x05, 0x29, 0xbe,
  0xb2, 0x84, 0xbd, 0x3d, 0x12, 0x35, 0xe1, 0xbd, 0x1d, 0xc9, 0xbc, 0xbd,
  0x0e, 0x28, 0xc0, 0xbd, 0x1f, 0xd8, 0x08, 0xbe, 0xff, 0xe3, 0xc5, 0xbd,
  0xaf, 0xd1, 0xde, 0xbd, 0xe9, 0x5d, 0x2b, 0xbe, 0xd3, 0x30, 0x1c, 0x3e,
  0x5d, 0x3e, 0x47, 0x3e, 0x8c, 0xcd, 0xb3, 0xbd, 0xca, 0xa1, 0xbc, 0x3d,
  0x09, 0x3a, 0x04, 0x3e, 0x90, 0x54, 0xc5, 0xbc, 0xcc, 0xfd, 0x25, 0xbe,
  0x56, 0x79, 0xf0, 0x3d, 0x43, 0xaf, 0x04, 0xbe, 0x10, 0x76, 0x14, 0xbd,
  0x56, 0xba, 0x29, 0xbe, 0x4a, 0xfd, 0xc3, 0x3d, 0x22, 0x64, 0xdb, 0x3d,
  0x26, 0x9e, 0x93, 0x3d, 0x39, 0xc1, 0x07, 0x3e, 0x98, 0x71, 0x4c, 0xbd,
  0x90, 0x01, 0x37, 0xbc, 0xff, 0x51, 0x59, 0x3e, 0x73, 0x7c, 0x52, 0x3e,
  0x7e, 0xe9, 0xb1, 0xbd, 0x95, 0x61, 0x1f, 0xbe, 0x00, 0xb6, 0x5a, 0xba,
  0x45, 0x48, 0x01, 0x3e, 0xe3, 0x66, 0x2c, 0x3e, 0x98, 0x19, 0x04, 0x3d,
  0x27, 0x2a, 0x54, 0x3e, 0x4d, 0x55, 0x4c, 0x3e, 0xd3, 0xc4, 0x48, 0x3e,
  0xa5, 0x02, 0x1f, 0x3e, 0xb3, 0xdc, 0x35, 0xbe, 0x59, 0xf7, 0x4d, 0x3e,
  0x60, 0xff, 0x16, 0xbd, 0xa2, 0x6f, 0xba, 0xbd, 0xbc, 0x22, 0x07, 0x3d,
  0x1c, 0xab, 0x0b, 0xbd, 0x78, 0xa7, 0x17, 0xbe, 0xb5, 0xb2, 0x47, 0x3e,
  0xac, 0x2c, 0x1a, 0xbd, 0x00, 0x1a, 0x11, 0xbd, 0x9e, 0x5c, 0xc0, 0x3d,
  0x00, 0x1b, 0x29, 0xbe, 0x24, 0xc3, 0x62, 0x3d, 0xa6, 0xee, 0xaf, 0xbd,
  0x80, 0xc3, 0x35, 0xbb, 0xd8, 0xb8, 0x82, 0x3c, 0x2f, 0xe9, 0x37, 0x3e,
  0x6b, 0x55, 0x1d, 0x3e, 0x6c, 0xfa, 0x5a, 0xbd, 0xb5, 0xdc, 0xdd, 0xbd,
  0x58, 0x2c, 0x9f, 0xbc, 0xc6, 0xf0, 0x1c, 0xbe, 0xb8, 0x8a, 0xea, 0x3c,
  0x6a, 0xf8, 0x85, 0x3d, 0x11, 0xc4, 0x41, 0xbe, 0xf9, 0xbe, 0x16, 0x3e,
  0x23, 0x89, 0x05, 0x3e, 0x80, 0xbd, 0x57, 0xbc, 0xd4, 0xb9, 0x2d, 0x3d,
  0xe8, 0x3c, 0xdf, 0xbd, 0xa7, 0x5d, 0xec, 0xbd, 0x32, 0xc6, 0xab, 0xbd,
  0xb9, 0xfb, 0x24, 0x3e, 0x2d, 0xb2, 0x14, 0x3e, 0x50, 0xe5, 0x80, 0xbc,
  0xd6, 0xf1, 0x93, 0x3d, 0x67, 0xda, 0x42, 0x3e, 0x14, 0xe2, 0x10, 0xbd,
  0xda, 0xb5, 0x33, 0xbe, 0x7f, 0x3a, 0xe6, 0xbd, 0x70, 0x41, 0x23, 0xbe,
  0x79, 0x03, 0x18, 0x3e, 0x82, 0xe7, 0xcd, 0x3d, 0x61, 0x55, 0x34, 0x3e,
  0x92, 0x6b, 0x4e, 0xbe, 0xce, 0x95, 0xbc, 0x3d, 0x3c, 0xf7, 0x0a, 0xbd,
  0xbf, 0xce, 0x54, 0x3e, 0x4c, 0xd5, 0x1e, 0xbe, 0x00, 0xe0, 0x0a, 0x3b,
  0x74, 0xd6, 0x31, 0x3d, 0x5f, 0xd4, 0x31, 0xbe, 0x48, 0xb5, 0x04, 0xbe,
  0x60, 0x42, 0x56, 0xbc, 0xc1, 0x32, 0xd9, 0xbd, 0xe9, 0xd9, 0x3f, 0xbe,
  0x21, 0xeb, 0x04, 0x3e, 0x60, 0xdd, 0xd0, 0xbc, 0xc4, 0xe5, 0x1b, 0x3d,
  0x96, 0xd9, 0x4f, 0xbe, 0x48, 0xa4, 0x3f, 0xbd, 0xa2, 0xad, 0x1a, 0xbe,
  0x66, 0x9f, 0xd4, 0x3d, 0x2b, 0x3c, 0x00, 0xbe, 0xcf, 0xb4, 0x4c, 0x3e,
  0x30, 0x8a, 0x35, 0xbc, 0xed, 0x94, 0x1b, 0x3e, 0x60, 0xa6, 0xb3, 0x3c,
  0x13, 0xb1, 0x01, 0x3e, 0xbe, 0x2e, 0x9c, 0xbd, 0xc0, 0xa0, 0x53, 0x3b,
  0xe0, 0xee, 0x5c, 0xbd, 0xd4, 0x3d, 0x7f, 0xbd, 0x4e, 0xd0, 0xbe, 0x3d,
  0xc1, 0x49, 0x5d, 0x3e, 0x42, 0xf0, 0x97, 0xbd, 0x70, 0x43, 0x0b, 0xbc,
  0x2b, 0xef, 0xd6, 0xbd, 0xf9, 0x5b, 0x3f, 0x3e, 0xe0, 0x94, 0xf1, 0xbd,
  0xec, 0xd7, 0x37, 0x3d, 0x87, 0xa0, 0x47, 0x3e, 0x29, 0x4a, 0x0a, 0x3e,
  0xfe, 0x6d, 0x84, 0x3d, 0x52, 0xef, 0xa0, 0x3d, 0x0e, 0xd0, 0x83, 0x3d,
  0xe9, 0x0d, 0x25, 0x3e, 0x58, 0x89, 0xd1, 0xbd, 0x36, 0x04, 0x1c, 0xbe,
  0x0e, 0x7d, 0xd8, 0x3d, 0xa1, 0xbd, 0x3a, 0x3e, 0x9a, 0x4a, 0xcf, 0x3d,
  0x8c, 0x95, 0x2a, 0x3d, 0x9e, 0x40, 0x8e, 0x3d, 0x4d, 0x65, 0x39, 0x3e,
  0xf0, 0x50, 0x51, 0xbd, 0x8d, 0xa8, 0xfe, 0xbd, 0xd9, 0x25, 0x21, 0x3e,
  0x84, 0x73, 0x02, 0x3d, 0x5c, 0xf1, 0xfd, 0xbd, 0xef, 0x3d, 0x26, 0x3e,
  0x52, 0x48, 0x92, 0x3d, 0x29, 0xde, 0x35, 0x3e, 0x4e, 0xb5, 0x4e, 0xbe,
  0x0c, 0x4a, 0x14, 0xbe, 0x66, 0xc8, 0xa7, 0xbd, 0x7f, 0x7d, 0x3e, 0x3e,
  0xe6, 0x62, 0xa8, 0x3d, 0x08, 0x49, 0x8f, 0xbc, 0xc4, 0x06, 0xfe, 0xbd,
  0xe0, 0x97, 0x2a, 0xbd, 0x44, 0xd8, 0x5a, 0x3d, 0xe8, 0x63, 0x6f, 0xbd,
  0xe2, 0xba, 0xcf, 0xbd, 0x00, 0x89, 0x27, 0x3a, 0x47, 0x40, 0x29, 0xbe,
  0xea, 0x7d, 0xd5, 0xbd, 0x90, 0xff, 0xa0, 0xbc, 0x5d, 0x55, 0x4d, 0x3e,
  0x64, 0x95, 0x2b, 0xbe, 0xf4, 0x74, 0x98, 0xbd, 0x9a, 0xa5, 0xfd, 0x3d,
  0x96, 0x54, 0xfc, 0x3d, 0xa8, 0x48, 0x83, 0xbd, 0x05, 0x36, 0x1b, 0x3e,
  0x31, 0xf7, 0x5c, 0x3e, 0xe8, 0xbd, 0x9f, 0xbd, 0x48, 0x01, 0xcf, 0xbc,
  0x80, 0x7c, 0xb2, 0xbd, 0x21, 0x1f, 0x5b, 0x3e, 0x46, 0x1f, 0x0f, 0xbe,
  0x97, 0xe7, 0x10, 0x3e, 0x16, 0x7c, 0xf4, 0xbd, 0x11, 0x94, 0x31, 0xbe,
  0x68, 0x25, 0x41, 0xbe, 0x06, 0x9d, 0xd7, 0x3d, 0x80, 0x7a, 0x4c, 0xbc,
  0x82, 0x7f, 0xb8, 0xbd, 0x43, 0x02, 0x19, 0x3e, 0xea, 0xfe, 0xa3, 0x3d,
  0x80, 0xd1, 0xf2, 0x3a, 0x66, 0x38, 0x90, 0x3d, 0x6e, 0x13, 0xd1, 0x3d,
  0x2a, 0xcb, 0xee, 0x3d, 0x60, 0xce, 0x41, 0x3c, 0x0f, 0xad, 0x07, 0x3e,
  0x3c, 0x0c, 0x75, 0xbd, 0xe4, 0x6a, 0x8d, 0xbd, 0x39, 0x25, 0x22, 0x3e,
  0x82, 0x68, 0xa1, 0x3d, 0xd6, 0xc7, 0xfe, 0x3d, 0x84, 0xc6, 0xa9, 0xbd,
  0x29, 0xdb, 0x55, 0xbe, 0x50, 0xc5, 0x3a, 0xbd, 0x20, 0xf5, 0x28, 0xbe,
  0x0d, 0x4e, 0x4f, 0xbe, 0xf1, 0x27, 0x01, 0x3e, 0x0b, 0x2c, 0x3d, 0x3e,
  0x3c, 0x86, 0x52, 0xbe, 0xe8, 0xef, 0xd7, 0xbc, 0x38, 0x2c, 0x44, 0xbd,
  0x81, 0x98, 0x2c, 0x3e, 0x39, 0xfb, 0x25, 0x3e, 0x77, 0x5c, 0x21, 0xbe,
  0xff, 0x29, 0x15, 0x3e, 0x04, 0x02, 0x1a, 0xbd, 0xac, 0x10, 0x4d, 0xbe,
  0xed, 0xee, 0x0e, 0xbe, 0x76, 0x1b, 0x12, 0xbe, 0x1d, 0x1c, 0x37, 0xbe,
  0xf0, 0x42, 0x81, 0xbc, 0x30, 0xeb, 0x59, 0xbc, 0xbf, 0x27, 0xcb, 0xbd,
  0x48, 0x71, 0x8d, 0xbd, 0x75, 0x04, 0x53, 0x3e, 0x70, 0xdd, 0xfb, 0x3c,
  0xcf, 0xdd, 0x59, 0xbe, 0xbd, 0x8e, 0x0a, 0x3e, 0xff, 0x48, 0x2c, 0xbe,
  0x60, 0x7c, 0x21, 0xbd, 0x82, 0xec, 0x38, 0xbe, 0xa0, 0xa4, 0xeb, 0x3c,
  0x00, 0xd5, 0x14, 0x3c, 0x4e, 0xb8, 0xb6, 0xbd, 0x79, 0x7a, 0x01, 0xbe,
  0x1b, 0x67, 0x51, 0xbe, 0xec, 0x23, 0x78, 0x3d, 0x2d, 0x49, 0x3a, 0xbe,
  0x93, 0x3f, 0x46, 0x3e, 0xd0, 0x01, 0xbd, 0xbd, 0x80, 0xae, 0x87, 0x3b,
  0x84, 0x7f, 0x12, 0x3d, 0x98, 0x3b, 0xb6, 0x3c, 0xdb, 0x46, 0x3e, 0xbe,
  0xfa, 0x0f, 0xac, 0xbd, 0xd8, 0xb0, 0xd9, 0xbc, 0x9b, 0x7b, 0x44, 0xbe,
  0xe7, 0xff, 0x34, 0x3e, 0x47, 0xe5, 0x59, 0xbe, 0xcd, 0xdd, 0x05, 0x3e,
  0x92, 0x7d, 0x47, 0xbe, 0xe0, 0x74, 0xc8, 0xbc, 0x80, 0x73, 0xf2, 0x3c,
  0x6c, 0xa8, 0x0a, 0x3d, 0x09, 0x60, 0x16, 0x3e, 0xba, 0x76, 0x1e, 0xbe,
  0x45, 0x75, 0xf4, 0xbd, 0x1c, 0x24, 0x12, 0xbe, 0x80, 0x70, 0x28, 0xbe,
  0x06, 0xb5, 0xa4, 0x3d, 0xdb, 0x23, 0x4c, 0xbe, 0x98, 0xc3, 0x32, 0xbd,
  0x00, 0x14, 0x75, 0x39, 0x1f, 0xa3, 0x32, 0xbe, 0xac, 0x46, 0xa2, 0xbd,
  0x6e, 0xe5, 0xa7, 0x3d, 0x40, 0xf8, 0x1e, 0xbb, 0xc5, 0x99, 0x51, 0x3e,
  0x1b, 0x1e, 0x1b, 0x3e, 0x2e, 0xf9, 0x84, 0x3d, 0x58, 0x60, 0x91, 0x3c,
  0xfa, 0x24, 0xfe, 0x3d, 0x84, 0x23, 0x22, 0xbe, 0x64, 0x07, 0x43, 0xbd,
  0x33, 0x45, 0x2b, 0x3e, 0xd2, 0x14, 0x2d, 0xbe, 0x82, 0x9a, 0x9f, 0xbd,
  0xb5, 0x8d, 0x2b, 0x3e, 0x82, 0xed, 0x4f, 0xbe, 0xae, 0x29, 0x1e, 0xbe,
  0xa5, 0x03, 0x36, 0x3e, 0x29, 0xa3, 0x37, 0x3e, 0xb0, 0xf6, 0x09, 0xbc,
  0x50, 0xe5, 0x40, 0xbd, 0xd7, 0x84, 0x21, 0x3e, 0x95, 0xf9, 0x2e, 0x3e,
  0xfb, 0x27, 0x4e, 0x3e, 0xa6, 0xd0, 0xce, 0x3d, 0x00, 0x2b, 0x8f, 0xbb,
  0xab, 0x8a, 0x0d, 0x3e, 0x3c, 0xce, 0x6e, 0x3d, 0x00, 0x65, 0x2b, 0xbe,
  0x5c, 0xfc, 0x48, 0xbd, 0x00, 0x80, 0x11, 0x37, 0xe0, 0x73, 0x3a, 0x3c,
  0xab, 0xc2, 0x0f, 0x3e, 0x80, 0xf4, 0x2f, 0xbb, 0x82, 0x89, 0x0c, 0xbe,
  0x6c, 0xb3, 0x1d, 0xbe, 0x40, 0x74, 0x3f, 0xbc, 0x40, 0x2b, 0x43, 0xbe,
  0x00, 0x40, 0xca, 0xba, 0x08, 0x31, 0x5b, 0xbd, 0xf8, 0x9b, 0xcd, 0xbd,
  0xb8, 0x03, 0x5c, 0xbe, 0x30, 0xde, 0x48, 0x3c, 0xca, 0x00, 0xc3, 0x3d,
  0x42, 0x41, 0x91, 0x3d, 0xc0, 0x09, 0xe2, 0x3c, 0xd0, 0xd4, 0x72, 0x3c,
  0x58, 0xf4, 0x5c, 0xbd, 0x06, 0x68, 0xad, 0x3d, 0x19, 0x89, 0x56, 0x3e,
  0xdb, 0xd8, 0x0e, 0xbe, 0x63, 0x8b, 0x1e, 0x3e, 0x12, 0xe9, 0x04, 0xbe,
  0xd4, 0x64, 0x4d, 0x3d, 0xe4, 0x39, 0x0c, 0xbe, 0x97, 0xd3, 0x46, 0x3e,
  0x38, 0x8c, 0xe8, 0xbc, 0xc7, 0x4b, 0x19, 0xbe, 0x00, 0x17, 0x25, 0x3b,
  0xcf, 0x7d, 0xff, 0xbd, 0x6f, 0xee, 0x58, 0x3e, 0xbe, 0x48, 0x3c, 0xbe,
  0xd8, 0x2f, 0x93, 0xbd, 0x9c, 0x32, 0x3f, 0x3d, 0x07, 0xd0, 0x17, 0x3e,
  0xe3, 0x0e, 0x5a, 0xbe, 0x24, 0xf5, 0x41, 0x3d, 0x02, 0x43, 0xa3, 0xbd,
  0x89, 0x28, 0xeb, 0xbd, 0x6c, 0xbd, 0xf7, 0xbd, 0xca, 0xf1, 0x29, 0xbe,
  0x79, 0x57, 0x22, 0x3e, 0x78, 0x53, 0x56, 0xbd, 0xcd, 0x68, 0xf3, 0xbd,
  0x44, 0x3c, 0x20, 0x3d, 0xe6, 0x05, 0xb3, 0x3d, 0x82, 0x49, 0xf3, 0x3d,
  0x9e, 0x92, 0xa4, 0xbd, 0x1e, 0xb5, 0xaf, 0x3d, 0x62, 0xbb, 0x0b, 0xbe,
  0xb0, 0x2a, 0x37, 0xbe, 0x24, 0x5f, 0x07, 0xbe, 0x9d, 0xfa, 0x5b, 0x3e,
  0x63, 0xc7, 0x2b, 0x3e, 0x10, 0xf5, 0x57, 0xbd, 0x97, 0xc1, 0x53, 0xbe,
  0x90, 0x80, 0xbd, 0xbc, 0x16, 0x12, 0xd2, 0x3d, 0xe1, 0xbf, 0x0f, 0x3e,
  0xbb, 0xb8, 0x34, 0x3e, 0x8f, 0x2b, 0xc5, 0xbd, 0xe9, 0xc3, 0x11, 0xbe,
  0xc0, 0x6f, 0x9f, 0xbb, 0xcc, 0x25, 0x51, 0x3d, 0x42, 0xd6, 0xf1, 0x3d,
  0xed, 0x68, 0x11, 0x3e, 0xbd, 0x90, 0x27, 0x3e, 0xf8, 0x80, 0xf5, 0x3c,
  0x1b, 0xf3, 0x2d, 0x3e, 0x3f, 0x0e, 0x19, 0x3e, 0xf4, 0x62, 0x35, 0xbe,
  0xaa, 0xaa, 0xd9, 0x3d, 0xcc, 0x2f, 0x2a, 0x3d, 0xd8, 0x03, 0x1e, 0xbe,
  0x6e, 0x3f, 0xdb, 0xbd, 0xcc, 0x6a, 0x39, 0xbe, 0x82, 0x79, 0x83, 0x3d,
  0x0f, 0x27, 0x1d, 0x3e, 0x94, 0x0f, 0x60, 0x3d, 0xe8, 0xf2, 0x8a, 0x3c,
  0xa6, 0xdd, 0xc6, 0x3d, 0xa5, 0xd6, 0x58, 0x3e, 0xff, 0x3c, 0x1d, 0x3e,
  0x1e, 0x7b, 0xc9, 0x3d, 0x79, 0xd3, 0x11, 0xbe, 0xc0, 0xa6, 0x35, 0xbc,
  0xa3, 0x16, 0x45, 0x3e, 0xb8, 0x73, 0xf3, 0xbc, 0x5f, 0x49, 0x45, 0x3e,
  0xce, 0x4e, 0x0b, 0xbe, 0xb3, 0x7a, 0x27, 0xbe, 0x5c, 0x96, 0x03, 0xbe,
  0xcc, 0xe8, 0x27, 0x3d, 0xde, 0xf1, 0xf4, 0xbd, 0x65, 0x7c, 0xbf, 0xbd,
  0x0b, 0xf8, 0x10, 0xbe, 0xb6, 0xf3, 0x50, 0xbe, 0xec, 0x5a, 0x55, 0xbd,
  0x79, 0x0f, 0x06, 0x3e, 0xea, 0xf8, 0x4f, 0xbe, 0xd8, 0xc6, 0x56, 0xbe,
  0x5a, 0x24, 0xfe, 0x3d, 0x58, 0x45, 0x46, 0xbe, 0xc6, 0xea, 0xff, 0x3d,
  0x28, 0x05, 0xf6, 0xbd, 0x75, 0xab, 0x2d, 0xbe, 0xa9, 0xdc, 0x21, 0x3e,
  0x6a, 0x74, 0xf3, 0x3d, 0x19, 0x04, 0x20, 0xbe, 0xee, 0x16, 0xf7, 0x3d,
  0xa5, 0x2c, 0xef, 0xbd, 0x14, 0x5f, 0x5a, 0x3d, 0x6b, 0xb5, 0x1b, 0x3e,
  0x3b, 0xba, 0x2f, 0xbe, 0xfd, 0x41, 0x3a, 0x3e, 0x8e, 0x11, 0x07, 0xbe,
  0x3c, 0xe8, 0x34, 0xbe, 0x80, 0x63, 0xef, 0xba, 0xdd, 0x4e, 0x4a, 0x3e,
  0x28, 0x1e, 0xb6, 0x3c, 0xfe, 0xf7, 0x84, 0xbd, 0xc0, 0x8e, 0x49, 0xbb,
  0xa4, 0xc2, 0x21, 0x3d, 0x6a, 0x71, 0xfc, 0x3d, 0xe4, 0x8d, 0xc7, 0xbd,
  0x3e, 0x1b, 0x97, 0xbd, 0x90, 0x31, 0xa2, 0xbd, 0x80, 0xe5, 0x0b, 0xbd,
  0x41, 0x07, 0x31, 0x3e, 0x85, 0xe8, 0x49, 0x3e, 0x27, 0x28, 0x31, 0x3e,
  0x98, 0xbe, 0x91, 0xbd, 0xd8, 0xd4, 0x17, 0xbe, 0xa9, 0x15, 0x3f, 0x3e,
  0x8d, 0xb4, 0x42, 0x3e, 0xd2, 0x8c, 0xa1, 0x3d, 0x0e, 0x99, 0xb5, 0x3d,
  0x45, 0x05, 0x15, 0x3e, 0x2a, 0x7d, 0x13, 0xbe, 0xa9, 0xa7, 0x4d, 0x3e,
  0x4e, 0x03, 0xed, 0x3d, 0xa7, 0xc9, 0x4e, 0x3e, 0x8c, 0xd9, 0x64, 0x3d,
  0x80, 0x1f, 0xbc, 0xba, 0x18, 0xeb, 0x8e, 0xbc, 0xa6, 0x5c, 0xc5, 0x3d,
  0xde, 0xb4, 0xac, 0xbd, 0x34, 0x05, 0x10, 0xbe, 0x70, 0xff, 0x16, 0xbe,
  0xea, 0xd9, 0xf8, 0x3d, 0xd5, 0x96, 0x41, 0x3e, 0xf4, 0xce, 0x03, 0x3d,
  0xa0, 0xfd, 0xd5, 0xbc, 0xf1, 0x4d, 0x09, 0x3e, 0x90, 0x0b, 0xc3, 0x3c,
  0x87, 0x4e, 0x0d, 0x3e, 0x74, 0xa9, 0x81, 0xbd, 0x24, 0x25, 0x79, 0x3d,
  0x60, 0x54, 0xb4, 0xbd, 0x34, 0x96, 0x21, 0xbe, 0x61, 0xc6, 0x03, 0x3e,
  0x9a, 0xcf, 0xb3, 0xbd, 0xce, 0xae, 0x95, 0x3d, 0xd8, 0x1e, 0x53, 0xbe,
  0xce, 0xca, 0xc7, 0x3d, 0x70, 0xb5, 0x03, 0xbe, 0x27, 0xd3, 0x1d, 0x3e,
  0x70, 0xe1, 0xf0, 0x3c, 0x5d, 0xf3, 0x4c, 0xbe, 0x28, 0x91, 0x69, 0xbd,
  0xe0, 0xdd, 0xdc, 0xbb, 0x30, 0xcc, 0x74, 0xbc, 0x54, 0xd3, 0x5f, 0xbd,
  0xc2, 0xda, 0xe3, 0x3d, 0x43, 0x09, 0x4e, 0x3e, 0x66, 0x31, 0xb5, 0xbd,
  0x0c, 0x62, 0x9d, 0xbd, 0x55, 0x6f, 0x10, 0xbe, 0xb0, 0x79, 0xf3, 0x3c,
  0xc7, 0x60, 0x4a, 0x3e, 0x00, 0x66, 0x53, 0x3b, 0x48, 0x65, 0x91, 0xbd,
  0xf0, 0x4b, 0x14, 0x3c, 0x52, 0x44, 0x87, 0xbd, 0x18, 0xd8, 0x03, 0xbe,
  0x00, 0xa1, 0xe0, 0xbb, 0x26, 0xf7, 0x3c, 0xbe, 0x18, 0xb5, 0x1e, 0xbe,
  0xbc, 0x9e, 0x08, 0xbe, 0x02, 0x7d, 0xf4, 0x3d, 0x11, 0x09, 0x0c, 0xbe,
  0xd5, 0xa1, 0x2a, 0xbe, 0x88, 0xbe, 0x08, 0xbd, 0x2a, 0xd5, 0x0f, 0xbe,
  0x54, 0x7b, 0x20, 0xbd, 0xd0, 0xeb, 0x04, 0xbd, 0xa6, 0x1b, 0x80, 0xbd,
  0x1c, 0x74, 0x41, 0xbe, 0xcb, 0xd3, 0x49, 0x3e, 0xc3, 0xeb, 0x4c, 0x3e,
  0xd9, 0x39, 0x47, 0x3e, 0xc7, 0x7f, 0x2b, 0x3e, 0x80, 0xc4, 0x9e, 0xba,
  0x50, 0x75, 0x70, 0x3c, 0xa6, 0x54, 0xf8, 0x3d, 0xb2, 0xcd, 0x83, 0x3d,
  0xb0, 0x18, 0x50, 0x3c, 0x66, 0x75, 0x0c, 0xbe, 0x8d, 0xa9, 0xc7, 0xbd,
  0x48, 0x46, 0xbf, 0xbc, 0x31, 0x7e, 0x47, 0x3e, 0x15, 0xe4, 0x3c, 0x3e,
  0x10, 0x4e, 0x5b, 0x3c, 0xe1, 0x56, 0x4e, 0x3e, 0xe2, 0x43, 0xe3, 0x3d,
  0xac, 0x6f, 0x2d, 0xbe, 0xf3, 0xeb, 0x20, 0xbe, 0xfe, 0xbb, 0xa4, 0x3d,
  0x64, 0x4e, 0x0e, 0xbd, 0x59, 0xd0, 0x0c, 0x3e, 0x80, 0x6f, 0xa2, 0xbc,
  0x17, 0xeb, 0x50, 0xbe, 0x20, 0x94, 0xf4, 0x3c, 0xc2, 0xa1, 0xf1, 0x3d,
  0x22, 0x8d, 0x0b, 0xbe, 0x28, 0x7f, 0xc2, 0xbd, 0x1c, 0x51, 0x37, 0xbd,
  0xd4, 0xa6, 0x30, 0x3d, 0x20, 0x74, 0x95, 0xbc, 0x04, 0x36, 0x54, 0xbe,
  0x58, 0x87, 0xf9, 0x3c, 0xb8, 0xcf, 0x84, 0xbc, 0xed, 0x39, 0x1b, 0x3e,
  0x72, 0xf2, 0xe9, 0xbd, 0xa6, 0x13, 0x89, 0xbd, 0x7f, 0xa3, 0x37, 0x3e,
  0xd7, 0xa9, 0x4d, 0x3e, 0x01, 0x0f, 0x20, 0xbe, 0xaf, 0x7b, 0x4d, 0x3e,
  0x9a, 0x75, 0xb2, 0xbd, 0x3a, 0x66, 0x22, 0xbe, 0xd0, 0xab, 0x0b, 0xbc,
  0xbb, 0x22, 0x15, 0x3e, 0x47, 0x0b, 0x14, 0x3e, 0x50, 0xa8, 0x1c, 0x3c,
  0xa4, 0x8d, 0x58, 0x3d, 0x14, 0x1a, 0x21, 0xbd, 0x70, 0xe6, 0x06, 0xbe,
  0xb4, 0x0f, 0x73, 0x3d, 0x80, 0x4f, 0x65, 0x3c, 0x38, 0xab, 0x45, 0xbe,
  0x7d, 0xd5, 0x01, 0x3e, 0xee, 0x60, 0x33, 0xbe, 0xe0, 0x9d, 0x59, 0x3c,
  0xa7, 0x93, 0xf8, 0xbd, 0xd2, 0xc8, 0xdd, 0x3d, 0xc1, 0x0b, 0x47, 0x3e,
  0x60, 0x1a, 0x33, 0xbe, 0x00, 0x98, 0x22, 0xbd, 0xc6, 0xdd, 0x1c, 0xbe,
  0xd8, 0xa4, 0x03, 0x3d, 0xc3, 0xb3, 0x3f, 0x3e, 0x9d, 0xd2, 0x4c, 0x3e,
  0xdb, 0xfa, 0xc6, 0xbd, 0x92, 0xd7, 0xf3, 0x3d, 0xee, 0x00, 0xa5, 0xbd,
  0x3c, 0x40, 0x15, 0x3d, 0xea, 0xf4, 0x41, 0xbe, 0x12, 0x95, 0x9f, 0xbd,
  0xc3, 0xe7, 0x3c, 0x3e, 0x2e, 0xf3, 0xec, 0x3d, 0xd5, 0x1b, 0x3c, 0x3e,
  0x94, 0x72, 0x17, 0xbe, 0x13, 0x90, 0x27, 0x3e, 0xb6, 0x8c, 0x94, 0x3d,
  0xf3, 0x86, 0x20, 0x3e, 0x3a, 0x78, 0xe9, 0x3d, 0x98, 0x34, 0x84, 0xbd,
  0xbc, 0x72, 0x1b, 0xbd, 0x9a, 0x57, 0xc7, 0xbd, 0xb0, 0x88, 0x7f, 0xbd,
  0xd7, 0xaf, 0x32, 0xbe, 0xa8, 0xc0, 0x8e, 0xbc, 0x60, 0x54, 0x03, 0xbe,
  0xa8, 0xb0, 0xf8, 0xbc, 0xdc, 0x60, 0x0c, 0xbd, 0x00, 0x07, 0x88, 0x3a,
  0x67, 0xce, 0xe2, 0xbd, 0x94, 0x29, 0x64, 0x3d, 0xee, 0x47, 0xce, 0xbd,
  0x32, 0xaf, 0xa5, 0x3d, 0x0d, 0x0b, 0x47, 0x3e, 0x00, 0x65, 0x8c, 0xbd,
  0xa3, 0x4f, 0xfc, 0xbd, 0x68, 0x5c, 0xdf, 0x3c, 0xb5, 0x1c, 0x46, 0xbe,
  0xf0, 0x0b, 0xbb, 0x3c, 0x14, 0xa5, 0x47, 0xbd, 0xa9, 0x75, 0x52, 0x3e,
  0x40, 0xca, 0xb2, 0xbd, 0x3b, 0x15, 0x38, 0x3e, 0x80, 0xc8, 0xde, 0xbb,
  0x24, 0xb8, 0xda, 0xbd, 0xc0, 0x74, 0x5e, 0xbc, 0x50, 0x08, 0x17, 0xbe,
  0x00, 0x20, 0x77, 0x3b, 0x54, 0xd0, 0x96, 0xbd, 0x69, 0x39, 0x3f, 0xbe,
  0xdc, 0xff, 0x19, 0x3d, 0x2f, 0xa3, 0x4b, 0xbe, 0xf8, 0x89, 0xd9, 0xbc,
  0x24, 0x2c, 0x1e, 0xbe, 0xc5, 0x06, 0x2c, 0x3e, 0x5c, 0xc4, 0x52, 0xbd,
  0x56, 0xf9, 0x43, 0xbe, 0x31, 0x25, 0xbc, 0xbd, 0x90, 0x24, 0x14, 0x3c,
  0xbe, 0xa6, 0xd7, 0x3d, 0x2b, 0x25, 0x56, 0xbe, 0x35, 0x8b, 0x10, 0x3e,
  0xa6, 0x1c, 0x14, 0xbe, 0xc1, 0x2f, 0x50, 0x3e, 0x00, 0x39, 0x21, 0xbb,
  0xd6, 0x25, 0x9f, 0x3d, 0xe0, 0x6e, 0xa9, 0x3b, 0x2d, 0x53, 0x32, 0xbe,
  0x11, 0xf3, 0xf3, 0xbd, 0x69, 0x73, 0xc5, 0xbd, 0x26, 0xa3, 0xa5, 0xbd,
  0xa6, 0x18, 0xa4, 0x3d, 0xf4, 0xbc, 0x27, 0x3d, 0xc4, 0x96, 0x77, 0x3d,
  0x91, 0x28, 0x23, 0x3e, 0xcc, 0xe6, 0x8f, 0xbd, 0xfc, 0x1e, 0x3a, 0x3d,
  0x7b, 0xb3, 0x41, 0x3e, 0x76, 0x43, 0xc1, 0xbd, 0xfe, 0x8f, 0x0a, 0xbe,
  0xb6, 0x38, 0x5c, 0xbe, 0x1e, 0xa5, 0x2e, 0xbe, 0xc3, 0x16, 0x2e, 0x3e,
  0x78, 0xcb, 0x53, 0xbe, 0x14, 0xa6, 0x4e, 0x3d, 0x64, 0x5f, 0x74, 0x3d,
  0x5d, 0x61, 0x24, 0xbe, 0x92, 0xf5, 0xa6, 0xbd, 0x80, 0x00, 0x1e, 0xbb,
  0x4d, 0xe8, 0x08, 0x3e, 0x30, 0x3f, 0xf6, 0x3c, 0x1c, 0xdf, 0x05, 0x3d,
  0x50, 0x83, 0x60, 0xbc, 0x26, 0xa5, 0xcc, 0x3d, 0xcd, 0x80, 0x5b, 0xbe,
  0x24, 0xb2, 0x50, 0x3d, 0x90, 0x86, 0x5d, 0xbe, 0xac, 0x38, 0x30, 0x3d,
  0xbd, 0x78, 0x3f, 0xbe, 0xae, 0xb4, 0xda, 0x3d, 0xe8, 0xe0, 0x98, 0xbd,
  0x55, 0x6b, 0x16, 0xbe, 0x68, 0x11, 0xcf, 0xbc, 0xa0, 0x74, 0x64, 0xbc,
  0x39, 0xdd, 0x4c, 0x3e, 0xdb, 0xbc, 0x51, 0xbe, 0x66, 0xda, 0xff, 0x3d,
  0x6c, 0x0f, 0x32, 0xbe, 0x4a, 0xde, 0x93, 0x3d, 0x36, 0x43, 0xef, 0x3d,
  0x72, 0x11, 0x40, 0xbe, 0x4b, 0x7a, 0x08, 0x3e, 0x13, 0x87, 0xf4, 0xbd,
  0xe2, 0xcb, 0xe2, 0x3d, 0x4d, 0x47, 0x1f, 0x3e, 0x02, 0x40, 0x0d, 0xbe,
  0xde, 0xbb, 0xdb, 0x3d, 0x0e, 0x65, 0x57, 0xbe, 0xb2, 0xa6, 0xf3, 0x3d,
  0xe4, 0x71, 0x05, 0xbd, 0xf9, 0x6f, 0x1e, 0x3e, 0xb8, 0x82, 0x29, 0xbe,
  0xc2, 0x65, 0x92, 0x3d, 0xc8, 0xdc, 0x2d, 0xbd, 0xd8, 0xa9, 0x00, 0xbe,
  0x26, 0xe0, 0x04, 0xbe, 0x2b, 0xa0, 0x5b, 0x3e, 0x79, 0xb3, 0x52, 0x3e,
  0xd8, 0x88, 0xcf, 0xbd, 0x54, 0x5c, 0x26, 0x3d, 0xc0, 0x2d, 0x7e, 0xbb,
  0x2a, 0x9d, 0xd9, 0x3d, 0xb6, 0x43, 0x1b, 0xbe, 0xaa, 0x22, 0x2d, 0xbe,
  0x74, 0x5a, 0x5b, 0x3d, 0xa8, 0xf3, 0xfc, 0xbc, 0xf2, 0x26, 0xa0, 0x3d,
  0xf0, 0xc0, 0x14, 0xbe, 0x92, 0x8e, 0x19, 0xbe, 0x50, 0x5e, 0x01, 0x3c,
  0xcc, 0xfa, 0x0f, 0xbd, 0x98, 0x5b, 0x4c, 0xbe, 0xc1, 0x3f, 0x2a, 0x3e,
  0x77, 0xf8, 0x4c, 0x3e, 0x3e, 0x7c, 0xec, 0x3d, 0x35, 0xbf, 0x1f, 0xbe,
  0x00, 0x33, 0xe5, 0xba, 0x3f, 0x35, 0x1e, 0xbe, 0xd8, 0xda, 0x50, 0xbd,
  0x80, 0x10, 0xeb, 0x3a, 0x22, 0xf8, 0xde, 0x3d, 0xdf, 0x5e, 0xc5, 0xbd,
  0x92, 0x56, 0x94, 0x3d, 0x80, 0x4c, 0x2e, 0xbd, 0x9f, 0x78, 0x42, 0x3e,
  0x80, 0x66, 0x71, 0x3c, 0x1b, 0x65, 0x47, 0x3e, 0x90, 0x40, 0x5c, 0x3c,
  0x44, 0x3d, 0x6d, 0x3d, 0xad, 0x75, 0x2c, 0xbe, 0xb2, 0x57, 0xc3, 0x3d,
  0xd6, 0x20, 0x10, 0xbe, 0xf5, 0x74, 0x24, 0xbe, 0xa9, 0x72, 0x1a, 0xbe,
  0x43, 0xc2, 0x3e, 0x3e, 0xae, 0x4a, 0xf6, 0x3d, 0x41, 0x1c, 0x40, 0x3e,
  0x95, 0xf5, 0x3a, 0x3e, 0xc7, 0xfa, 0x20, 0x3e, 0x8c, 0xd3, 0x76, 0xbd,
  0xb8, 0x5e, 0xc4, 0xbd, 0x5e, 0x3c, 0xdb, 0x3d, 0x64, 0x4b, 0x66, 0x3d,
  0x24, 0xf3, 0x08, 0xbe, 0xb9, 0x79, 0x53, 0xbe, 0x00, 0xaa, 0x09, 0xbb,
  0xee, 0xf5, 0xa2, 0x3d, 0xa3, 0xa8, 0x41, 0x3e, 0x40, 0xa6, 0x4e, 0xbd,
  0x8a, 0xdb, 0x16, 0xbe, 0xf0, 0xfe, 0x53, 0xbd, 0xe1, 0xf3, 0x28, 0x3e,
  0xb0, 0xfc, 0x3a, 0x3c, 0x62, 0x7b, 0xb0, 0xbd, 0xf5, 0xe8, 0xd1, 0xbd,
  0x5b, 0xb9, 0xca, 0xbd, 0x7e, 0xd5, 0x8a, 0x3d, 0x44, 0x30, 0x13, 0x3d,
  0x4d, 0xec, 0xe9, 0xbd, 0xee, 0x93, 0xa5, 0x3d, 0x5e, 0xdf, 0xbe, 0x3d,
  0xfa, 0x81, 0x87, 0xbd, 0xc6, 0x07, 0xc9, 0xbd, 0xe4, 0xa3, 0xb4, 0xbd,
  0xf0, 0xee, 0x75, 0xbc, 0xd8, 0xc7, 0x28, 0xbd, 0x0e, 0x9d, 0xc0, 0x3d,
  0xe9, 0xad, 0x40, 0x3e, 0x93, 0x13, 0x18, 0x3e, 0x98, 0x01, 0xf7, 0x3c,
  0xcd, 0x77, 0x24, 0xbe, 0xe7, 0x71, 0x00, 0xbe, 0x44, 0x0f, 0x7e, 0xbd,
  0xd3, 0x11, 0x24, 0x3e, 0x43, 0x67, 0x5c, 0x3e, 0x41, 0x11, 0xdf, 0xbd,
  0x70, 0x0c, 0xcf, 0x3c, 0x60, 0x27, 0xeb, 0xbc, 0xe2, 0xed, 0xe1, 0xbd,
  0x2d, 0x7c, 0x01, 0x3e, 0x18, 0xdc, 0xf9, 0xbc, 0x83, 0x9f, 0x52, 0xbe,
  0xdb, 0x9d, 0x2f, 0x3e, 0x56, 0xce, 0xf1, 0x3d, 0x4b, 0xa9, 0xe6, 0xbd,
  0xe9, 0x72, 0x09, 0x3e, 0xf6, 0xb0, 0x0b, 0xbe, 0x33, 0x75, 0xd5, 0xbd,
  0x53, 0xad, 0x56, 0x3e, 0xf9, 0x3b, 0xfe, 0xbd, 0xc0, 0xc7, 0xb6, 0x3b,
  0xc2, 0xf3, 0xf5, 0x3d, 0x01, 0xc2, 0x1e, 0xbe, 0x1e, 0x45, 0xf8, 0x3d,
  0x16, 0x9d, 0x2d, 0xbe, 0x2f, 0x5f, 0x52, 0x3e, 0x1b, 0x04, 0x18, 0x3e,
  0xa4, 0xfa, 0x18, 0x3d, 0xaa, 0x73, 0xf5, 0xbd, 0x00, 0x73, 0x7d, 0x3a,
  0xaa, 0x4a, 0xa3, 0x3d, 0xc2, 0xc1, 0xc8, 0x3d, 0x5e, 0x8d, 0xc8, 0x3d,
  0x50, 0xdb, 0x31, 0x3c, 0xd7, 0xb2, 0x1a, 0x3e, 0xc5, 0x31, 0x40, 0x3e,
  0x22, 0xf3, 0xe2, 0x3d, 0xbf, 0x31, 0x4b, 0xbe, 0xb9, 0x98, 0x4e, 0x3e,
  0x74, 0xb9, 0x33, 0x3d, 0x55, 0xb1, 0xc5, 0xbd, 0x56, 0xde, 0x09, 0xbe,
  0xc0, 0x1e, 0x36, 0xbd, 0xf5, 0xf5, 0x4b, 0x3e, 0x39, 0xd4, 0x53, 0xbe,
  0x00, 0x8e, 0xf7, 0xba, 0x68, 0xc4, 0x8b, 0xbd, 0x08, 0xd3, 0x6f, 0xbd,
  0xd6, 0xd9, 0xea, 0x3d, 0xa6, 0x8b, 0xda, 0x3d, 0x00, 0xe8, 0x21, 0x3a,
  0x67, 0x56, 0x53, 0x3e, 0x7b, 0x5c, 0x31, 0x3e, 0x2c, 0x43, 0x48, 0xbe,
  0xa4, 0xf2, 0x49, 0x3d, 0x04, 0x1e, 0x77, 0xbd, 0x7c, 0x53, 0x8d, 0xbd,
  0xf5, 0xab, 0x4c, 0xbe, 0x10, 0xd4, 0x61, 0xbd, 0x40, 0xdf, 0x18, 0xbc,
  0x98, 0x2f, 0x11, 0xbd, 0xad, 0x15, 0x49, 0x3e, 0x2a, 0xbf, 0xc2, 0x3d,
  0x8f, 0x16, 0x47, 0x3e, 0x26, 0x0d, 0xb7, 0xbd, 0x88, 0x8e, 0x6b, 0xbd,
  0xb4, 0xd6, 0x27, 0x3d, 0x1d, 0x62, 0x42, 0x3e, 0xfc, 0xa5, 0x18, 0x3d,
  0x00, 0x5c, 0xfc, 0x3a, 0x16, 0xa8, 0xbe, 0x3d, 0xc9, 0x7a, 0x4d, 0x3e,
  0x0a, 0x76, 0x02, 0xbe, 0x1a, 0xd4, 0xe0, 0xbd, 0x0d, 0x29, 0x2c, 0x3e,
  0x1d, 0x4c, 0x49, 0x3e, 0xe3, 0xc3, 0xc0, 0xbd, 0x70, 0xc9, 0xa0, 0xbc,
  0x58, 0x42, 0x0d, 0xbd, 0x76, 0xf6, 0xbe, 0x3d, 0x6b, 0x4e, 0x4f, 0x3e,
  0x6a, 0x61, 0xe9, 0xbd, 0x40, 0xb5, 0xbb, 0xbc, 0xce, 0xa7, 0xe9, 0x3d,
  0xe9, 0xff, 0x06, 0x3e, 0x78, 0x3d, 0x41, 0xbe, 0x18, 0xf4, 0x7d, 0xbd,
  0xb1, 0x5b, 0x4f, 0x3e, 0x22, 0x1a, 0xa5, 0x3d, 0xff, 0x72, 0x17, 0xbe,
  0x7f, 0x6c, 0x3d, 0x3e, 0x80, 0x60, 0xaf, 0xbc, 0x47, 0x74, 0x23, 0x3e,
  0xa0, 0x7a, 0xda, 0x3c, 0xd0, 0xf4, 0x70, 0xbc, 0x3f, 0x5d, 0x5c, 0x3e,
  0x58, 0x60, 0x16, 0xbd, 0x2d, 0x52, 0x59, 0x3e, 0x69, 0x10, 0x4c, 0x3e,
  0x54, 0xb5, 0x0b, 0x3d, 0x9a, 0x2d, 0x38, 0xbe, 0x80, 0xc5, 0x15, 0xbb,
  0x4e, 0x45, 0x28, 0xbe, 0x40, 0x5b, 0x22, 0x3b, 0x94, 0xae, 0x8a, 0xbd,
  0x2c, 0x51, 0x12, 0x3d, 0x23, 0x60, 0xc9, 0xbd, 0x28, 0xf1, 0x0e, 0xbe,
  0x7a, 0x43, 0xf9, 0x3d, 0xbb, 0x22, 0x01, 0x3e, 0x26, 0x49, 0x86, 0xbd,
  0xd6, 0xb4, 0x88, 0x3d, 0x9c, 0xfd, 0x54, 0x3d, 0xb9, 0xf1, 0x3c, 0xbe,
  0x8a, 0x16, 0x37, 0xbe, 0xba, 0x3e, 0x18, 0xbe, 0xe8, 0xc3, 0x6b, 0xbd,
  0x56, 0x62, 0xb8, 0xbd, 0x8e, 0xfb, 0x38, 0xbe, 0x24, 0x45, 0x7d, 0x3d,
  0x0e, 0x1b, 0xf2, 0xbd, 0x3a, 0x9a, 0x4b, 0xbe, 0xe0, 0x2a, 0x90, 0x3c,
  0x26, 0x46, 0x3d, 0xbe, 0x62, 0x81, 0x05, 0xbe, 0xad, 0xa3, 0x10, 0x3e,
  0xd4, 0xe8, 0x1e, 0x3d, 0x32, 0xc8, 0x9f, 0xbd, 0xc4, 0xf8, 0x14, 0xbe,
  0xba, 0xbc, 0x9a, 0x3d, 0xe6, 0x8c, 0xa5, 0xbd, 0x7c, 0x89, 0x3c, 0x3d,
  0x7a, 0x6f, 0x36, 0xbe, 0xc4, 0x4d, 0x18, 0xbd, 0x23, 0xf5, 0x10, 0x3e,
  0x83, 0x36, 0x34, 0x3e, 0xad, 0x04, 0x12, 0x3e, 0x41, 0x13, 0x09, 0x3e,
  0x3f, 0x94, 0x27, 0xbe, 0x86, 0x7b, 0x1a, 0xbe, 0x0c, 0xd2, 0x9f, 0xbd,
  0x24, 0x1d, 0x45, 0x3d, 0x00, 0x90, 0x29, 0x3c, 0xb9, 0xe5, 0x44, 0x3e,
  0xb0, 0x5b, 0xcf, 0xbc, 0x50, 0x29, 0x0b, 0xbd, 0x72, 0xeb, 0xb7, 0x3d,
  0x94, 0xb1, 0x55, 0xbe, 0x8a, 0x6c, 0xf5, 0x3d, 0x20, 0x36, 0x35, 0xbe,
  0x1c, 0x35, 0x31, 0xbd, 0x96, 0xdf, 0xd5, 0xbd, 0x40, 0x26, 0xa4, 0xbc,
  0x15, 0xbd, 0x17, 0x3e, 0xc0, 0xe7, 0x67, 0xbb, 0x0c, 0x25, 0x3a, 0x3d,
  0x44, 0x8e, 0x03, 0xbd, 0xd6, 0x57, 0xab, 0x3d, 0xd9, 0x60, 0x2e, 0xbe,
  0xe9, 0xdb, 0x53, 0x3e, 0x50, 0x80, 0x46, 0xbd, 0x60, 0x2b, 0x7f, 0xbd,
  0x3d, 0x96, 0xf3, 0xbd, 0x38, 0x04, 0x2a, 0xbd, 0x77, 0xee, 0x54, 0x3e,
  0xa7, 0xa5, 0x3d, 0x3e, 0x9f, 0xbd, 0x04, 0x3e, 0xc6, 0x66, 0x83, 0x3d,
  0xe2, 0x63, 0xa1, 0xbd, 0x1d, 0x48, 0xf9, 0xbd, 0xd0, 0xf8, 0x61, 0xbd,
  0xdf, 0xc9, 0x08, 0x3e, 0x07, 0xdd, 0x35, 0x3e, 0xf0, 0xfe, 0x82, 0xbd,
  0xad, 0x09, 0x09, 0x3e, 0xd0, 0x31, 0x7c, 0xbd, 0x98, 0xee, 0xc3, 0xbd,
  0x13, 0xdb, 0x49, 0x3e, 0xdb, 0x1c, 0x48, 0x3e, 0x13, 0x3d, 0xff, 0xbd,
  0x1c, 0x83, 0x40, 0x3d, 0x86, 0x4c, 0x4d, 0xbe, 0x58, 0x9e, 0xfd, 0x3c,
  0x14, 0x78, 0x5f, 0x3d, 0xe4, 0x9e, 0x6b, 0x3d, 0x97, 0x13, 0x0b, 0x3e,
  0x70, 0x6f, 0x75, 0xbc, 0x38, 0xd5, 0x14, 0xbe, 0x92, 0x2d, 0xda, 0x3d,
  0x96, 0x3c, 0xb4, 0x3d, 0x40, 0x6c, 0x50, 0xbd, 0x6e, 0x97, 0xab, 0x3d,
  0x70, 0xc7, 0x06, 0xbe, 0xe2, 0x27, 0x1c, 0xbe, 0xb2, 0xb9, 0x83, 0x3d,
  0xa9, 0x42, 0xe7, 0xbd, 0x03, 0xf4, 0x09, 0x3e, 0x5c, 0xae, 0x3c, 0x3d,
  0xff, 0xa0, 0x3d, 0x3e, 0xff, 0xf2, 0x56, 0xbe, 0xc0, 0x65, 0x20, 0xbb,
  0x92, 0xe3, 0xbd, 0x3d, 0xd1, 0x0e, 0x06, 0x3e, 0x65, 0xce, 0x22, 0x3e,
  0x48, 0x3b, 0x19, 0xbe, 0x46, 0x0d, 0x8e, 0xbd, 0x2c, 0x92, 0x3d, 0x3d,
  0xce, 0xdc, 0x93, 0x3d, 0xef, 0x99, 0x28, 0x3e, 0x8c, 0x25, 0x23, 0xbe,
  0xc1, 0x76, 0x3b, 0x3e, 0x97, 0x21, 0xea, 0xbd, 0x15, 0xb3, 0x41, 0x3e,
  0x46, 0x49, 0xa5, 0xbd, 0xa0, 0xfe, 0x27, 0x3c, 0x17, 0x18, 0x31, 0xbe,
  0xd2, 0x27, 0x94, 0x3d, 0xe8, 0x9a, 0xb2, 0xbc, 0x04, 0xd2, 0x64, 0xbd,
  0x71, 0xe8, 0x4c, 0x3e, 0x31, 0x0a, 0x4a, 0x3e, 0xac, 0xc7, 0x33, 0x3d,
  0xa0, 0xb9, 0xe6, 0x3c, 0xab, 0x44, 0x1d, 0x3e, 0x8c, 0x54, 0x45, 0xbe,
  0x1c, 0x9d, 0x6e, 0x3d, 0x81, 0x22, 0x4c, 0xbe, 0xc6, 0xac, 0xd4, 0x3d,
  0x29, 0x4a, 0x5d, 0x3e, 0x52, 0x27, 0xa6, 0xbd, 0x65, 0x4e, 0x4e, 0x3e,
  0x80, 0x26, 0xec, 0xbd, 0xd5, 0x5e, 0x2e, 0xbe, 0x5b, 0xae, 0x45, 0x3e,
  0xa4, 0xe8, 0x0e, 0x3d, 0x1d, 0x7b, 0x19, 0x3e, 0x16, 0x23, 0x81, 0xbd,
  0x6c, 0x55, 0x54, 0x3d, 0x12, 0xe9, 0xcd, 0xbd, 0xcf, 0xb7, 0xce, 0xbd,
  0x2b, 0x9f, 0x4c, 0x3e, 0x62, 0x5b, 0xeb, 0x3d, 0x2a, 0x55, 0x15, 0xbe,
  0x6a, 0xa1, 0xcf, 0x3d, 0x59, 0xcf, 0x39, 0x3e, 0xb0, 0x76, 0xf4, 0xbc,
  0xa8, 0xaa, 0x18, 0xbe, 0x53, 0x48, 0x59, 0x3e, 0xf8, 0xcb, 0xa9, 0x3c,
  0xaa, 0x47, 0xc7, 0x3d, 0xea, 0x60, 0x07, 0xbe, 0x30, 0x82, 0x35, 0xbe,
  0x70, 0xe3, 0x2a, 0xbd, 0xa6, 0x66, 0x54, 0xbe, 0xff, 0x0f, 0x48, 0x3e,
  0xbe, 0x3e, 0x98, 0xbd, 0xf1, 0xe6, 0x2f, 0x3e, 0xb0, 0xbf, 0xc2, 0x3c,
  0xfa, 0x57, 0x80, 0x3d, 0x5e, 0x9f, 0xec, 0x3d, 0x0e, 0x6e, 0xab, 0x3d,
  0xed, 0x2d, 0x28, 0xbe, 0xee, 0x13, 0xae, 0x3d, 0x8d, 0x6d, 0x4a, 0xbe,
  0x9c, 0x82, 0x2e, 0x3d, 0x5a, 0xfb, 0x84, 0x3d, 0x9d, 0x8f, 0x07, 0x3e,
  0xf0, 0x40, 0x3a, 0xbe, 0x04, 0x9d, 0x0d, 0x3d, 0x19, 0xbc, 0x56, 0xbe,
  0xde, 0x57, 0x97, 0xbd, 0xe0, 0x1b, 0xac, 0x3b, 0x4d, 0x55, 0xd4, 0xbd,
  0x4f, 0x7b, 0x2a, 0xbe, 0x54, 0xa4, 0x08, 0xbd, 0xd0, 0x5e, 0x0f, 0xbd,
  0xca, 0x27, 0x9b, 0x3d, 0x27, 0x96, 0x4b, 0x3e, 0x1b, 0x6f, 0x08, 0x3e,
  0x6c, 0xed, 0x2a, 0xbe, 0x21, 0xce, 0x38, 0xbe, 0xc1, 0x96, 0x35, 0xbe,
  0xd8, 0xd5, 0xb5, 0xbc, 0x20, 0x0f, 0xf1, 0xbc, 0xfe, 0xa7, 0x4c, 0xbe,
  0xc1, 0x5f, 0x5a, 0x3e, 0x10, 0x83, 0x90, 0xbd, 0xaa, 0x29, 0x9a, 0x3d,
  0xc6, 0x06, 0xd3, 0x3d, 0xac, 0xe5, 0x39, 0x3d, 0x92, 0x10, 0xa9, 0x3d,
  0x00, 0x06, 0x88, 0xb9, 0x85, 0x00, 0x12, 0xbe, 0xae, 0x59, 0x36, 0xbe,
  0xe2, 0x8f, 0x0f, 0xbe, 0x86, 0xde, 0xa2, 0xbd, 0xca, 0x33, 0x2e, 0xbe,
  0x4f, 0x83, 0xee, 0xbd, 0xcf, 0xc4, 0x0c, 0x3e, 0x74, 0x3e, 0xaa, 0xbd,
  0x5f, 0x59, 0x06, 0x3e, 0x66, 0x57, 0xbf, 0xbd, 0xde, 0x38, 0xfa, 0x3d,
  0xa2, 0x13, 0xcc, 0x3d, 0x43, 0x8a, 0x15, 0x3e, 0x98, 0x4d, 0xe5, 0xbc,
  0x38, 0x29, 0xf1, 0xbc, 0x59, 0x16, 0x39, 0xbe, 0xcd, 0x33, 0x07, 0x3e,
  0x1a, 0x9b, 0xc3, 0x3d, 0xa5, 0x22, 0x0a, 0x3e, 0x72, 0xe7, 0x2e, 0xbe,
  0x16, 0xda, 0xa9, 0x3d, 0x24, 0xbc, 0x9d, 0xbd, 0xa4, 0xfe, 0x52, 0x3d,
  0x00, 0x07, 0x21, 0x3c, 0xe4, 0xb7, 0x43, 0x3d, 0xda, 0x62, 0x9d, 0x3d,
  0xc0, 0x4c, 0x05, 0xbd, 0xbc, 0xf6, 0x11, 0x3d, 0x30, 0x90, 0x03, 0x3c,
  0x33, 0x7e, 0xd0, 0xbd, 0x8d, 0x92, 0x43, 0xbe, 0x81, 0xa2, 0x50, 0xbe,
  0xd6, 0x54, 0x90, 0xbd, 0xc2, 0xfa, 0x87, 0x3d, 0x47, 0x80, 0xfb, 0xbd,
  0x3e, 0x13, 0x90, 0x3d, 0xf0, 0x4c, 0x3d, 0xbd, 0x95, 0xcb, 0x5c, 0xbe,
  0xf9, 0x5c, 0x20, 0x3e, 0xe2, 0x3e, 0x02, 0xbe, 0x35, 0x3f, 0x23, 0x3e,
  0x86, 0x7d, 0x93, 0x3d, 0xfd, 0x19, 0x53, 0xbe, 0xd4, 0x88, 0x33, 0xbd,
  0xea, 0x57, 0x4a, 0xbe, 0xca, 0xd5, 0x84, 0x3d, 0x10, 0x8a, 0xe9, 0x3c,
  0x3a, 0xff, 0xff, 0xff, 0x10, 0x00, 0x00, 0x00, 0x04, 0x00, 0x00, 0x00,
  0x14, 0x00, 0x00, 0x00, 0x2c, 0x00, 0x00, 0x00, 0x02, 0x00, 0x00, 0x00,
  0x10, 0x00, 0x00, 0x00, 0x70, 0x00, 0x00, 0x00, 0x17, 0x00, 0x00, 0x00,
  0x73, 0x65, 0x71, 0x75, 0x65, 0x6e, 0x74, 0x69, 0x61, 0x6c, 0x2f, 0x64,
  0x65, 0x6e, 0x73, 0x65, 0x2f, 0x4d, 0x61, 0x74, 0x4d, 0x75, 0x6c, 0x00,
  0xa4, 0xfe, 0xff, 0xff, 0x92, 0xff, 0xff, 0xff, 0x04, 0x00, 0x00, 0x00,
  0x08, 0x00, 0x00, 0x00, 0xff, 0xff, 0xff, 0xff, 0x70, 0x00, 0x00, 0x00,
  0x00, 0x00, 0x0e, 0x00, 0x18, 0x00, 0x08, 0x00, 0x07, 0x00, 0x0c, 0x00,
  0x10, 0x00, 0x14, 0x00, 0x0e, 0x00, 0x00, 0x00, 0x00, 0x00, 0x00, 0x02,
  0x10, 0x00, 0x00, 0x00, 0x03, 0x00, 0x00, 0x00, 0x10, 0x00, 0x00, 0x00,
  0x30, 0x00, 0x00, 0x00, 0x01, 0x00, 0x00, 0x00, 0x02, 0x00, 0x00, 0x00,
  0x18, 0x00, 0x00, 0x00, 0x73, 0x65, 0x71, 0x75, 0x65, 0x6e, 0x74, 0x69,
  0x61, 0x6c, 0x2f, 0x66, 0x6c, 0x61, 0x74, 0x74, 0x65, 0x6e, 0x2f, 0x43,
  0x6f, 0x6e, 0x73, 0x74, 0x00, 0x00, 0x00, 0x00, 0x04, 0x00, 0x06, 0x00,
  0x04, 0x00, 0x00, 0x00, 0x00, 0x00, 0x06, 0x00, 0x08, 0x00, 0x04, 0x00,
  0x06, 0x00, 0x00, 0x00, 0x04, 0x00, 0x00, 0x00, 0x04, 0x00, 0x00, 0x00,
  0x00, 0x00, 0x00, 0x00, 0x00, 0x00, 0x0e, 0x00, 0x14, 0x00, 0x04, 0x00,
  0x00, 0x00, 0x08, 0x00, 0x0c, 0x00, 0x10, 0x00, 0x0e, 0x00, 0x00, 0x00,
  0x10, 0x00, 0x00, 0x00, 0x02, 0x00, 0x00, 0x00, 0x10, 0x00, 0x00, 0x00,
  0x44, 0x00, 0x00, 0x00, 0x01, 0x00, 0x00, 0x00, 0x01, 0x00, 0x00, 0x00,
  0x32, 0x00, 0x00, 0x00, 0x73, 0x65, 0x71, 0x75, 0x65, 0x6e, 0x74, 0x69,
  0x61, 0x6c, 0x2f, 0x64, 0x65, 0x6e, 0x73, 0x65, 0x5f, 0x31, 0x2f, 0x42,
  0x69, 0x61, 0x73, 0x41, 0x64, 0x64, 0x2f, 0x52, 0x65, 0x61, 0x64, 0x56,
  0x61, 0x72, 0x69, 0x61, 0x62, 0x6c, 0x65, 0x4f, 0x70, 0x2f, 0x72, 0x65,
  0x73, 0x6f, 0x75, 0x72, 0x63, 0x65, 0x00, 0x00, 0x90, 0xff, 0xff, 0xff,
  0x14, 0x00, 0x18, 0x00, 0x04, 0x00, 0x00, 0x00, 0x08, 0x00, 0x0c, 0x00,
  0x10, 0x00, 0x00, 0x00, 0x00, 0x00, 0x14, 0x00, 0x14, 0x00, 0x00, 0x00,
  0x14, 0x00, 0x00, 0x00, 0x01, 0x00, 0x00, 0x00, 0x20, 0x00, 0x00, 0x00,
  0x44, 0x00, 0x00, 0x00, 0x2c, 0x00, 0x00, 0x00, 0x04, 0x00, 0x00, 0x00,
  0x01, 0x00, 0x00, 0x00, 0x40, 0x00, 0x00, 0x00, 0x03, 0x00, 0x00, 0x00,
  0x01, 0x00, 0x00, 0x00, 0x0c, 0x00, 0x00, 0x00, 0x63, 0x6f, 0x6e, 0x76,
  0x32, 0x64, 0x5f, 0x69, 0x6e, 0x70, 0x75, 0x74, 0x00, 0x00, 0x00, 0x00,
  0x04, 0x00, 0x00, 0x00, 0xff, 0xff, 0xff, 0xff, 0x40, 0x00, 0x00, 0x00,
  0x03, 0x00, 0x00, 0x00, 0x01, 0x00, 0x00, 0x00, 0xfc, 0xff, 0xff, 0xff,
  0x04, 0x00, 0x04, 0x00, 0x04, 0x00, 0x00, 0x00
};

unsigned int model_tflite_len = 12596;// Fill the int in `src/model.cc` here