#include "magic_wand_model_data.h"

// We need to keep the data array aligned on some architectures.
#ifdef __has_attribute
#define HAVE_ATTRIBUTE(x) __has_attribute(x)
#else
#define HAVE_ATTRIBUTE(x) 0
#endif
#if HAVE_ATTRIBUTE(aligned) || (defined(__GNUC__) && !defined(__clang__))
#define DATA_ALIGN_ATTRIBUTE __attribute__((aligned(4)))
#else
#define DATA_ALIGN_ATTRIBUTE
#endif

const unsigned char g_magic_wand_model_data[] DATA_ALIGN_ATTRIBUTE = {
0x1c, 0x00, 0x00, 0x00, 0x54, 0x46, 0x4c, 0x33, 0x14, 0x00, 0x20, 0x00,
  0x04, 0x00, 0x08, 0x00, 0x0c, 0x00, 0x10, 0x00, 0x14, 0x00, 0x00, 0x00,
  0x18, 0x00, 0x1c, 0x00, 0x14, 0x00, 0x00, 0x00, 0x03, 0x00, 0x00, 0x00,
  0x18, 0x00, 0x00, 0x00, 0x2c, 0x00, 0x00, 0x00, 0xd4, 0x00, 0x00, 0x00,
  0x2c, 0x00, 0x00, 0x00, 0x7c, 0x00, 0x00, 0x00, 0x74, 0x00, 0x00, 0x00,
  0x05, 0x00, 0x00, 0x00, 0xec, 0x06, 0x00, 0x00, 0x08, 0x06, 0x00, 0x00,
  0xb4, 0x03, 0x00, 0x00, 0xf0, 0x02, 0x00, 0x00, 0xa4, 0x01, 0x00, 0x00,
  0x01, 0x00, 0x00, 0x00, 0xcc, 0x00, 0x00, 0x00, 0x13, 0x00, 0x00, 0x00,
  0xd0, 0x30, 0x00, 0x00, 0xcc, 0x30, 0x00, 0x00, 0xe0, 0x2f, 0x00, 0x00,
  0x68, 0x2f, 0x00, 0x00, 0x18, 0x13, 0x00, 0x00, 0x84, 0x12, 0x00, 0x00,
  0x14, 0x12, 0x00, 0x00, 0x38, 0x10, 0x00, 0x00, 0xa8, 0x0f, 0x00, 0x00,
  0x4c, 0x07, 0x00, 0x00, 0xa8, 0x30, 0x00, 0x00, 0xa4, 0x30, 0x00, 0x00,
  0xa0, 0x30, 0x00, 0x00, 0x9c, 0x30, 0x00, 0x00, 0x98, 0x30, 0x00, 0x00,
  0x94, 0x30, 0x00, 0x00, 0x90, 0x30, 0x00, 0x00, 0x8c, 0x30, 0x00, 0x00,
  0x3c, 0x00, 0x00, 0x00, 0x00, 0x00, 0x00, 0x00, 0x01, 0x00, 0x00, 0x00,
  0x0c, 0x00, 0x00, 0x00, 0x08, 0x00, 0x0c, 0x00, 0x04, 0x00, 0x08, 0x00,
  0x08, 0x00, 0x00, 0x00, 0x08, 0x00, 0x00, 0x00, 0x12, 0x00, 0x00, 0x00,
  0x13, 0x00, 0x00, 0x00, 0x6d, 0x69, 0x6e, 0x5f, 0x72, 0x75, 0x6e, 0x74,
  0x69, 0x6d, 0x65, 0x5f, 0x76, 0x65, 0x72, 0x73, 0x69, 0x6f, 0x6e, 0x00,
  0xa2, 0xd0, 0xff, 0xff, 0x04, 0x00, 0x00, 0x00, 0x10, 0x00, 0x00, 0x00,
  0x31, 0x2e, 0x35, 0x2e, 0x30, 0x00, 0x00, 0x00, 0x00, 0x00, 0x00, 0x00,
  0x00, 0x00, 0x00, 0x00, 0x0f, 0x00, 0x00, 0x00, 0x4d, 0x4c, 0x49, 0x52,
  0x20, 0x43, 0x6f, 0x6e, 0x76, 0x65, 0x72, 0x74, 0x65, 0x64, 0x2e, 0x00,
  0x00, 0x00, 0x0e, 0x00, 0x18, 0x00, 0x04, 0x00, 0x08, 0x00, 0x0c, 0x00,
  0x10, 0x00, 0x14, 0x00, 0x0e, 0x00, 0x00, 0x00, 0x14, 0x00, 0x00, 0x00,
  0x58, 0x00, 0x00, 0x00, 0x5c, 0x00, 0x00, 0x00, 0x60, 0x00, 0x00, 0x00,
  0x80, 0x00, 0x00, 0x00, 0x11, 0x00, 0x00, 0x00, 0x94, 0x2f, 0x00, 0x00,
  0x24, 0x2f, 0x00, 0x00, 0xb0, 0x2e, 0x00, 0x00, 0x48, 0x2e, 0x00, 0x00,
  0xf4, 0x11, 0x00, 0x00, 0x64, 0x11, 0x00, 0x00, 0xe8, 0x10, 0x00, 0x00,
  0x18, 0x0f, 0x00, 0x00, 0x7c, 0x0e, 0x00, 0x00, 0xd8, 0x05, 0x00, 0x00,
  0xf4, 0x04, 0x00, 0x00, 0xe8, 0x03, 0x00, 0x00, 0x3c, 0x03, 0x00, 0x00,
  0x98, 0x02, 0x00, 0x00, 0xd4, 0x01, 0x00, 0x00, 0x10, 0x01, 0x00, 0x00,
  0x84, 0x00, 0x00, 0x00, 0x01, 0x00, 0x00, 0x00, 0x00, 0x00, 0x00, 0x00,
  0x01, 0x00, 0x00, 0x00, 0x10, 0x00, 0x00, 0x00, 0x08, 0x00, 0x00, 0x00,
  0x40, 0x05, 0x00, 0x00, 0x60, 0x04, 0x00, 0x00, 0x78, 0x03, 0x00, 0x00,
  0xbc, 0x02, 0x00, 0x00, 0x30, 0x02, 0x00, 0x00, 0x50, 0x01, 0x00, 0x00,
  0xa8, 0x00, 0x00, 0x00, 0x10, 0x00, 0x00, 0x00, 0x04, 0x00, 0x00, 0x00,
  0x6d, 0x61, 0x69, 0x6e, 0x00, 0x00, 0x00, 0x00, 0x7a, 0xff, 0xff, 0xff,
  0x00, 0x00, 0x00, 0x09, 0x04, 0x00, 0x00, 0x00, 0x1c, 0x00, 0x00, 0x00,
  0x10, 0x00, 0x00, 0x00, 0x04, 0x00, 0x00, 0x00, 0x9a, 0xd1, 0xff, 0xff,
  0x00, 0x00, 0x80, 0x3f, 0x01, 0x00, 0x00, 0x00, 0x10, 0x00, 0x00, 0x00,
  0x01, 0x00, 0x00, 0x00, 0x0f, 0x00, 0x00, 0x00, 0xd4, 0xfa, 0xff, 0xff,
  0x19, 0x00, 0x00, 0x00, 0x00, 0x00, 0x00, 0x19, 0x01, 0x00, 0x00, 0x00,
  0x44, 0xd1, 0xff, 0xff, 0x14, 0x00, 0x00, 0x00, 0x11, 0x00, 0x00, 0x00,
  0x18, 0x00, 0x00, 0x00, 0x30, 0x00, 0x00, 0x00, 0x20, 0x00, 0x00, 0x00,
  0x02, 0x00, 0x00, 0x00, 0x01, 0x00, 0x00, 0x00, 0x01, 0x00, 0x00, 0x00,
  0x08, 0x00, 0x00, 0x00, 0x49, 0x64, 0x65, 0x6e, 0x74, 0x69, 0x74, 0x79,
  0x00, 0x00, 0x00, 0x00, 0x02, 0x00, 0x00, 0x00, 0xff, 0xff, 0xff, 0xff,
  0x01, 0x00, 0x00, 0x00, 0x0c, 0xd2, 0xff, 0xff, 0x00, 0x00, 0x0e, 0x00,
  0x18, 0x00, 0x08, 0x00, 0x0c, 0x00, 0x10, 0x00, 0x07, 0x00, 0x14, 0x00,
  0x0e, 0x00, 0x00, 0x00, 0x00, 0x00, 0x00, 0x08, 0x03, 0x00, 0x00, 0x00,
  0x18, 0x00, 0x00, 0x00, 0x0c, 0x00, 0x00, 0x00, 0x04, 0x00, 0x00, 0x00,
  0x44, 0xd1, 0xff, 0xff, 0x01, 0x00, 0x00, 0x00, 0x0f, 0x00, 0x00, 0x00,
  0x03, 0x00, 0x00, 0x00, 0x0e, 0x00, 0x00, 0x00, 0x04, 0x00, 0x00, 0x00,
  0x01, 0x00, 0x00, 0x00, 0xcc, 0xd1, 0xff, 0xff, 0x14, 0x00, 0x00, 0x00,
  0x10, 0x00, 0x00, 0x00, 0x18, 0x00, 0x00, 0x00, 0x5c, 0x00, 0x00, 0x00,
  0x4c, 0x00, 0x00, 0x00, 0x02, 0x00, 0x00, 0x00, 0x01, 0x00, 0x00, 0x00,
  0x01, 0x00, 0x00, 0x00, 0x34, 0x00, 0x00, 0x00, 0x73, 0x65, 0x71, 0x75,
  0x65, 0x6e, 0x74, 0x69, 0x61, 0x6c, 0x2f, 0x64, 0x65, 0x6e, 0x73, 0x65,
  0x5f, 0x31, 0x2f, 0x4d, 0x61, 0x74, 0x4d, 0x75, 0x6c, 0x3b, 0x73, 0x65,
  0x71, 0x75, 0x65, 0x6e, 0x74, 0x69, 0x61, 0x6c, 0x2f, 0x64, 0x65, 0x6e,
  0x73, 0x65, 0x5f, 0x31, 0x2f, 0x42, 0x69, 0x61, 0x73, 0x41, 0x64, 0x64,
  0x00, 0x00, 0x00, 0x00, 0x02, 0x00, 0x00, 0x00, 0xff, 0xff, 0xff, 0xff,
  0x01, 0x00, 0x00, 0x00, 0xcc, 0xd1, 0xff, 0xff, 0x0e, 0xfd, 0xff, 0xff,
  0x00, 0x00, 0x00, 0x08, 0x03, 0x00, 0x00, 0x00, 0x24, 0x00, 0x00, 0x00,
  0x18, 0x00, 0x00, 0x00, 0x0c, 0x00, 0x00, 0x00, 0x00, 0x00, 0x06, 0x00,
  0x08, 0x00, 0x07, 0x00, 0x06, 0x00, 0x00, 0x00, 0x00, 0x00, 0x00, 0x01,
  0x01, 0x00, 0x00, 0x00, 0x0e, 0x00, 0x00, 0x00, 0x03, 0x00, 0x00, 0x00,
  0x0d, 0x00, 0x00, 0x00, 0x03, 0x00, 0x00, 0x00, 0x07, 0x00, 0x00, 0x00,
  0x1c, 0xfc, 0xff, 0xff, 0x09, 0x00, 0x00, 0x00, 0x00, 0x00, 0x00, 0x09,
  0x01, 0x00, 0x00, 0x00, 0x8c, 0xd2, 0xff, 0xff, 0x14, 0x00, 0x00, 0x00,
  0x0f, 0x00, 0x00, 0x00, 0x18, 0x00, 0x00, 0x00, 0x6c, 0x00, 0x00, 0x00,
  0x5c, 0x00, 0x00, 0x00, 0x02, 0x00, 0x00, 0x00, 0x01, 0x00, 0x00, 0x00,
  0x10, 0x00, 0x00, 0x00, 0x46, 0x00, 0x00, 0x00, 0x73, 0x65, 0x71, 0x75,
  0x65, 0x6e, 0x74, 0x69, 0x61, 0x6c, 0x2f, 0x64, 0x65, 0x6e, 0x73, 0x65,
  0x2f, 0x4d, 0x61, 0x74, 0x4d, 0x75, 0x6c, 0x3b, 0x73, 0x65, 0x71, 0x75,
  0x65, 0x6e, 0x74, 0x69, 0x61, 0x6c, 0x2f, 0x64, 0x65, 0x6e, 0x73, 0x65,
  0x2f, 0x52, 0x65, 0x6c, 0x75, 0x3b, 0x73, 0x65, 0x71, 0x75, 0x65, 0x6e,
  0x74, 0x69, 0x61, 0x6c, 0x2f, 0x64, 0x65, 0x6e, 0x73, 0x65, 0x2f, 0x42,
  0x69, 0x61, 0x73, 0x41, 0x64, 0x64, 0x00, 0x00, 0x02, 0x00, 0x00, 0x00,
  0xff, 0xff, 0xff, 0xff, 0x10, 0x00, 0x00, 0x00, 0x90, 0xd3, 0xff, 0xff,
  0x00, 0x00, 0x0a, 0x00, 0x10, 0x00, 0x04, 0x00, 0x08, 0x00, 0x0c, 0x00,
  0x0a, 0x00, 0x00, 0x00, 0x02, 0x00, 0x00, 0x00, 0x10, 0x00, 0x00, 0x00,
  0x04, 0x00, 0x00, 0x00, 0x01, 0x00, 0x00, 0x00, 0x0d, 0x00, 0x00, 0x00,
  0x02, 0x00, 0x00, 0x00, 0x0c, 0x00, 0x00, 0x00, 0x02, 0x00, 0x00, 0x00,
  0xdc, 0xfc, 0xff, 0xff, 0x16, 0x00, 0x00, 0x00, 0x00, 0x00, 0x00, 0x16,
  0x01, 0x00, 0x00, 0x00, 0x4c, 0xd3, 0xff, 0xff, 0x14, 0x00, 0x00, 0x00,
  0x0e, 0x00, 0x00, 0x00, 0x18, 0x00, 0x00, 0x00, 0x40, 0x00, 0x00, 0x00,
  0x30, 0x00, 0x00, 0x00, 0x02, 0x00, 0x00, 0x00, 0x01, 0x00, 0x00, 0x00,
  0x70, 0x00, 0x00, 0x00, 0x1a, 0x00, 0x00, 0x00, 0x73, 0x65, 0x71, 0x75,
  0x65, 0x6e, 0x74, 0x69, 0x61, 0x6c, 0x2f, 0x66, 0x6c, 0x61, 0x74, 0x74,
  0x65, 0x6e, 0x2f, 0x52, 0x65, 0x73, 0x68, 0x61, 0x70, 0x65, 0x00, 0x00,
  0x02, 0x00, 0x00, 0x00, 0xff, 0xff, 0xff, 0xff, 0x70, 0x00, 0x00, 0x00,
  0x30, 0xd3, 0xff, 0xff, 0x72, 0xfe, 0xff, 0xff, 0x00, 0x00, 0x00, 0x05,
  0x01, 0x00, 0x00, 0x00, 0x38, 0x00, 0x00, 0x00, 0x2c, 0x00, 0x00, 0x00,
  0x14, 0x00, 0x00, 0x00, 0x00, 0x00, 0x0e, 0x00, 0x14, 0x00, 0x00, 0x00,
  0x10, 0x00, 0x0c, 0x00, 0x08, 0x00, 0x04, 0x00, 0x0e, 0x00, 0x00, 0x00,
  0x03, 0x00, 0x00, 0x00, 0x01, 0x00, 0x00, 0x00, 0x03, 0x00, 0x00, 0x00,
  0x01, 0x00, 0x00, 0x00, 0x01, 0x00, 0x00, 0x00, 0x0c, 0x00, 0x00, 0x00,
  0x01, 0x00, 0x00, 0x00, 0x0b, 0x00, 0x00, 0x00, 0xec, 0xd3, 0xff, 0xff,
  0x14, 0x00, 0x00, 0x00, 0x0d, 0x00, 0x00, 0x00, 0x20, 0x00, 0x00, 0x00,
  0x58, 0x00, 0x00, 0x00, 0x40, 0x00, 0x00, 0x00, 0x04, 0x00, 0x00, 0x00,
  0x01, 0x00, 0x00, 0x00, 0x07, 0x00, 0x00, 0x00, 0x01, 0x00, 0x00, 0x00,
  0x10, 0x00, 0x00, 0x00, 0x22, 0x00, 0x00, 0x00, 0x73, 0x65, 0x71, 0x75,
  0x65, 0x6e, 0x74, 0x69, 0x61, 0x6c, 0x2f, 0x6d, 0x61, 0x78, 0x5f, 0x70,
  0x6f, 0x6f, 0x6c, 0x69, 0x6e, 0x67, 0x32, 0x64, 0x5f, 0x31, 0x2f, 0x4d,
  0x61, 0x78, 0x50, 0x6f, 0x6f, 0x6c, 0x00, 0x00, 0x04, 0x00, 0x00, 0x00,
  0xff, 0xff, 0xff, 0xff, 0x07, 0x00, 0x00, 0x00, 0x01, 0x00, 0x00, 0x00,
  0x10, 0x00, 0x00, 0x00, 0xe8, 0xd3, 0xff, 0xff, 0x4e, 0xfe, 0xff, 0xff,
  0x00, 0x00, 0x00, 0x01, 0x24, 0x00, 0x00, 0x00, 0x18, 0x00, 0x00, 0x00,
  0x04, 0x00, 0x00, 0x00, 0x40, 0xfe, 0xff, 0xff, 0x01, 0x00, 0x00, 0x00,
  0x01, 0x00, 0x00, 0x00, 0x00, 0x00, 0x00, 0x01, 0x01, 0x00, 0x00, 0x00,
  0x0b, 0x00, 0x00, 0x00, 0x03, 0x00, 0x00, 0x00, 0x0a, 0x00, 0x00, 0x00,
  0x08, 0x00, 0x00, 0x00, 0x07, 0x00, 0x00, 0x00, 0x94, 0xd4, 0xff, 0xff,
  0x14, 0x00, 0x00, 0x00, 0x0c, 0x00, 0x00, 0x00, 0x20, 0x00, 0x00, 0x00,
  0x84, 0x00, 0x00, 0x00, 0x6c, 0x00, 0x00, 0x00, 0x04, 0x00, 0x00, 0x00,
  0x01, 0x00, 0x00, 0x00, 0x15, 0x00, 0x00, 0x00, 0x01, 0x00, 0x00, 0x00,
  0x10, 0x00, 0x00, 0x00, 0x4f, 0x00, 0x00, 0x00, 0x73, 0x65, 0x71, 0x75,
  0x65, 0x6e, 0x74, 0x69, 0x61, 0x6c, 0x2f, 0x63, 0x6f, 0x6e, 0x76, 0x32,
  0x64, 0x5f, 0x31, 0x2f, 0x52, 0x65, 0x6c, 0x75, 0x3b, 0x73, 0x65, 0x71,
  0x75, 0x65, 0x6e, 0x74, 0x69, 0x61, 0x6c, 0x2f, 0x63, 0x6f, 0x6e, 0x76,
  0x32, 0x64, 0x5f, 0x31, 0x2f, 0x42, 0x69, 0x61, 0x73, 0x41, 0x64, 0x64,
  0x3b, 0x73, 0x65, 0x71, 0x75, 0x65, 0x6e, 0x74, 0x69, 0x61, 0x6c, 0x2f,
  0x63, 0x6f, 0x6e, 0x76, 0x32, 0x64, 0x5f, 0x31, 0x2f, 0x43, 0x6f, 0x6e,
  0x76, 0x32, 0x44, 0x00, 0x04, 0x00, 0x00, 0x00, 0xff, 0xff, 0xff, 0xff,
  0x15, 0x00, 0x00, 0x00, 0x01, 0x00, 0x00, 0x00, 0x10, 0x00, 0x00, 0x00,
  0xb0, 0xd5, 0xff, 0xff, 0x00, 0x00, 0x0e, 0x00, 0x1a, 0x00, 0x08, 0x00,
  0x0c, 0x00, 0x10, 0x00, 0x07, 0x00, 0x14, 0x00, 0x0e, 0x00, 0x00, 0x00,
  0x00, 0x00, 0x00, 0x05, 0x01, 0x00, 0x00, 0x00, 0x3c, 0x00, 0x00, 0x00,
  0x30, 0x00, 0x00, 0x00, 0x14, 0x00, 0x00, 0x00, 0x00, 0x00, 0x0e, 0x00,
  0x18, 0x00, 0x17, 0x00, 0x10, 0x00, 0x0c, 0x00, 0x08, 0x00, 0x04, 0x00,
  0x0e, 0x00, 0x00, 0x00, 0x03, 0x00, 0x00, 0x00, 0x03, 0x00, 0x00, 0x00,
  0x03, 0x00, 0x00, 0x00, 0x03, 0x00, 0x00, 0x00, 0x00, 0x00, 0x00, 0x01,
  0x01, 0x00, 0x00, 0x00, 0x0a, 0x00, 0x00, 0x00, 0x01, 0x00, 0x00, 0x00,
  0x09, 0x00, 0x00, 0x00, 0x2c, 0xff, 0xff, 0xff, 0x11, 0x00, 0x00, 0x00,
  0x00, 0x00, 0x00, 0x11, 0x01, 0x00, 0x00, 0x00, 0x9c, 0xd5, 0xff, 0xff,
  0x14, 0x00, 0x00, 0x00, 0x0b, 0x00, 0x00, 0x00, 0x20, 0x00, 0x00, 0x00,
  0x58, 0x00, 0x00, 0x00, 0x40, 0x00, 0x00, 0x00, 0x04, 0x00, 0x00, 0x00,
  0x01, 0x00, 0x00, 0x00, 0x15, 0x00, 0x00, 0x00, 0x01, 0x00, 0x00, 0x00,
  0x08, 0x00, 0x00, 0x00, 0x20, 0x00, 0x00, 0x00, 0x73, 0x65, 0x71, 0x75,
  0x65, 0x6e, 0x74, 0x69, 0x61, 0x6c, 0x2f, 0x6d, 0x61, 0x78, 0x5f, 0x70,
  0x6f, 0x6f, 0x6c, 0x69, 0x6e, 0x67, 0x32, 0x64, 0x2f, 0x4d, 0x61, 0x78,
  0x50, 0x6f, 0x6f, 0x6c, 0x00, 0x00, 0x00, 0x00, 0x04, 0x00, 0x00, 0x00,
  0xff, 0xff, 0xff, 0xff, 0x15, 0x00, 0x00, 0x00, 0x01, 0x00, 0x00, 0x00,
  0x08, 0x00, 0x00, 0x00, 0x8c, 0xd6, 0xff, 0xff, 0x00, 0x00, 0x0e, 0x00,
  0x14, 0x00, 0x00, 0x00, 0x08, 0x00, 0x0c, 0x00, 0x07, 0x00, 0x10, 0x00,
  0x0e, 0x00, 0x00, 0x00, 0x00, 0x00, 0x00, 0x01, 0x30, 0x00, 0x00, 0x00,
  0x24, 0x00, 0x00, 0x00, 0x10, 0x00, 0x00, 0x00, 0x0c, 0x00, 0x10, 0x00,
  0x00, 0x00, 0x04, 0x00, 0x08, 0x00, 0x0f, 0x00, 0x0c, 0x00, 0x00, 0x00,
  0x01, 0x00, 0x00, 0x00, 0x01, 0x00, 0x00, 0x00, 0x00, 0x00, 0x00, 0x01,
  0x01, 0x00, 0x00, 0x00, 0x09, 0x00, 0x00, 0x00, 0x03, 0x00, 0x00, 0x00,
  0x00, 0x00, 0x00, 0x00, 0x06, 0x00, 0x00, 0x00, 0x05, 0x00, 0x00, 0x00,
  0x0c, 0x00, 0x10, 0x00, 0x0b, 0x00, 0x00, 0x00, 0x0c, 0x00, 0x04, 0x00,
  0x0c, 0x00, 0x00, 0x00, 0x03, 0x00, 0x00, 0x00, 0x00, 0x00, 0x00, 0x03,
  0x01, 0x00, 0x00, 0x00, 0x7c, 0xd6, 0xff, 0xff, 0x14, 0x00, 0x00, 0x00,
  0x0a, 0x00, 0x00, 0x00, 0x20, 0x00, 0x00, 0x00, 0x80, 0x00, 0x00, 0x00,
  0x68, 0x00, 0x00, 0x00, 0x04, 0x00, 0x00, 0x00, 0x01, 0x00, 0x00, 0x00,
  0x40, 0x00, 0x00, 0x00, 0x03, 0x00, 0x00, 0x00, 0x08, 0x00, 0x00, 0x00,
  0x49, 0x00, 0x00, 0x00, 0x73, 0x65, 0x71, 0x75, 0x65, 0x6e, 0x74, 0x69,
  0x61, 0x6c, 0x2f, 0x63, 0x6f, 0x6e, 0x76, 0x32, 0x64, 0x2f, 0x52, 0x65,
  0x6c, 0x75, 0x3b, 0x73, 0x65, 0x71, 0x75, 0x65, 0x6e, 0x74, 0x69, 0x61,
  0x6c, 0x2f, 0x63, 0x6f, 0x6e, 0x76, 0x32, 0x64, 0x2f, 0x42, 0x69, 0x61,
  0x73, 0x41, 0x64, 0x64, 0x3b, 0x73, 0x65, 0x71, 0x75, 0x65, 0x6e, 0x74,
  0x69, 0x61, 0x6c, 0x2f, 0x63, 0x6f, 0x6e, 0x76, 0x32, 0x64, 0x2f, 0x43,
  0x6f, 0x6e, 0x76, 0x32, 0x44, 0x00, 0x00, 0x00, 0x04, 0x00, 0x00, 0x00,
  0xff, 0xff, 0xff, 0xff, 0x40, 0x00, 0x00, 0x00, 0x03, 0x00, 0x00, 0x00,
  0x08, 0x00, 0x00, 0x00, 0xa0, 0xd6, 0xff, 0xff, 0x8e, 0xd7, 0xff, 0xff,
  0x04, 0x00, 0x00, 0x00, 0x00, 0x08, 0x00, 0x00, 0x68, 0xd2, 0xf6, 0x3d,
  0x58, 0xd0, 0x52, 0xbe, 0x80, 0x35, 0xfb, 0xbd, 0xa0, 0x6b, 0xc1, 0x3d,
  0x90, 0x23, 0x33, 0xbe, 0xe0, 0x67, 0x0e, 0xbd, 0x70, 0xf3, 0x3c, 0x3e,
  0xe8, 0x00, 0xb1, 0xbd, 0x60, 0xa9, 0x3d, 0xbd, 0x78, 0xad, 0xcc, 0x3d,
  0xc8, 0x4a, 0xf6, 0x3d, 0x28, 0x90, 0xb1, 0xbd, 0xf0, 0x7f, 0x72, 0xbe,
  0x68, 0x04, 0x8c, 0xbd, 0xe8, 0x56, 0x37, 0x3e, 0x80, 0xda, 0x06, 0x3c,
  0x20, 0xfb, 0x91, 0x3d, 0x68, 0x62, 0xbe, 0x3d, 0x24, 0xe5, 0x66, 0xbe,
  0xe0, 0x8b, 0x44, 0x3e, 0xb0, 0x0d, 0xe0, 0x3d, 0x04, 0x99, 0x4e, 0xbe,
  0xf4, 0x3a, 0x24, 0x3e, 0x00, 0x34, 0x7d, 0x3d, 0xf0, 0x99, 0x6c, 0x3d,
  0xb4, 0xa6, 0x55, 0xbe, 0xe8, 0x2d, 0x12, 0xbe, 0xa8, 0x16, 0xce, 0x3d,
  0x00, 0x91, 0x5e, 0x3d, 0x60, 0x2d, 0x71, 0xbe, 0x10, 0x4c, 0xc8, 0x3d,
  0x78, 0x2d, 0x02, 0x3e, 0xc8, 0x1e, 0xeb, 0x3d, 0x30, 0x53, 0x55, 0xbe,
  0xc0, 0x2b, 0x56, 0xbc, 0xd8, 0xbf, 0xeb, 0x3d, 0x00, 0x2a, 0x8b, 0x3d,
  0x80, 0xa6, 0xc0, 0x3b, 0x70, 0xaa, 0xdd, 0xbd, 0x7c, 0x01, 0x17, 0x3e,
  0xe0, 0x5f, 0x47, 0xbd, 0x6c, 0x44, 0x19, 0x3e, 0xfc, 0x30, 0x0e, 0xbe,
  0xa4, 0x36, 0x22, 0x3e, 0xc8, 0x7b, 0xa3, 0xbd, 0xd0, 0x39, 0x50, 0x3e,
  0xc8, 0x21, 0x33, 0xbe, 0x84, 0x91, 0x12, 0x3e, 0x90, 0x69, 0x27, 0x3d,
  0xcc, 0x78, 0x57, 0xbe, 0x60, 0x43, 0x3d, 0x3e, 0xa0, 0xf4, 0xcf, 0xbc,
  0xb0, 0x30, 0xd5, 0xbd, 0xd8, 0xe9, 0x7a, 0xbe, 0x00, 0xe2, 0x5a, 0xbc,
  0xd0, 0xa2, 0x2b, 0xbd, 0x2c, 0x5d, 0x28, 0x3e, 0x00, 0x8b, 0x0c, 0xbb,
  0x10, 0x65, 0x2f, 0x3e, 0x58, 0x98, 0xcf, 0xbd, 0x70, 0x9c, 0x59, 0xbd,
  0x20, 0x85, 0x71, 0xbd, 0xa0, 0xdf, 0xf4, 0x3c, 0x7c, 0x66, 0x4a, 0x3e,
  0x8c, 0x8e, 0x75, 0xbe, 0xe8, 0xc0, 0xbc, 0x3d, 0x40, 0x80, 0xb2, 0xbc,
  0x60, 0xd7, 0xe8, 0x3c, 0x2c, 0x4e, 0x18, 0xbe, 0x08, 0x4d, 0xa8, 0x3d,
  0x08, 0xee, 0x62, 0xbe, 0x68, 0x72, 0xf3, 0xbd, 0x50, 0xcb, 0x97, 0x3d,
  0x40, 0xba, 0xbf, 0x3c, 0xa4, 0xd8, 0x72, 0xbe, 0x24, 0xc0, 0x6b, 0xbe,
  0x40, 0xcc, 0x3f, 0x3e, 0xfc, 0xfe, 0x57, 0x3e, 0x38, 0xb0, 0x32, 0x3e,
  0x50, 0x8b, 0x6f, 0x3d, 0xf8, 0xb0, 0xd1, 0xbd, 0x48, 0x2c, 0x23, 0x3e,
  0xf4, 0x29, 0x58, 0x3e, 0x70, 0x30, 0xac, 0xbd, 0xcc, 0xbb, 0x3d, 0xbe,
  0x44, 0x89, 0x2b, 0xbe, 0xf0, 0x44, 0x39, 0x3d, 0x2c, 0x49, 0x18, 0x3e,
  0xd8, 0xcf, 0xa1, 0x3d, 0x14, 0x45, 0x21, 0x3e, 0xdc, 0x92, 0x7d, 0x3e,
  0x80, 0x57, 0x6d, 0xbe, 0xf0, 0xd6, 0xf3, 0x3d, 0x7c, 0x68, 0x02, 0xbe,
  0x60, 0x93, 0x81, 0x3d, 0x00, 0x21, 0x39, 0x3d, 0x98, 0x96, 0x7d, 0xbe,
  0x58, 0xf6, 0xbf, 0xbd, 0x60, 0x53, 0x95, 0xbd, 0x48, 0x04, 0x86, 0xbd,
  0x10, 0x09, 0x25, 0x3e, 0x20, 0x16, 0xc4, 0x3d, 0xb8, 0x7c, 0x54, 0xbe,
  0xf0, 0xfe, 0xad, 0x3d, 0x00, 0xea, 0x57, 0x3d, 0x28, 0x78, 0x30, 0xbe,
  0x80, 0xd8, 0x82, 0xbd, 0xc0, 0xc9, 0x22, 0xbd, 0x48, 0xba, 0x72, 0xbe,
  0x00, 0xe8, 0x30, 0xbd, 0x14, 0xa3, 0x4c, 0xbe, 0x40, 0x15, 0x3d, 0xbe,
  0x20, 0xf2, 0xc9, 0xbd, 0x08, 0x0d, 0x92, 0xbd, 0x64, 0x06, 0x73, 0xbe,
  0x84, 0x4c, 0x4a, 0x3e, 0xd0, 0x1a, 0xcc, 0xbd, 0x08, 0x83, 0xcb, 0xbd,
  0xf8, 0xaa, 0x14, 0xbe, 0x04, 0x56, 0x47, 0xbe, 0x64, 0x89, 0x62, 0x3e,
  0xa0, 0x52, 0xff, 0x3c, 0x08, 0x34, 0x7c, 0xbe, 0x30, 0x92, 0xe3, 0xbd,
  0x88, 0x97, 0x95, 0x3d, 0x74, 0x81, 0x7b, 0xbe, 0xcc, 0xaf, 0x79, 0x3e,
  0xb0, 0x46, 0x34, 0x3e, 0x28, 0x5e, 0x1b, 0x3e, 0xb4, 0xe5, 0x71, 0xbe,
  0x3c, 0xfa, 0x0e, 0xbe, 0x1c, 0x16, 0x55, 0x3e, 0x70, 0xed, 0xb9, 0xbd,
  0x34, 0xaf, 0x2e, 0x3e, 0x80, 0x03, 0x48, 0xbe, 0x80, 0x2e, 0x01, 0xbc,
  0x64, 0x54, 0x6e, 0xbe, 0x88, 0x15, 0x57, 0x3e, 0xbc, 0x6b, 0x24, 0x3e,
  0xb4, 0xe7, 0x60, 0xbe, 0x24, 0x3c, 0x1a, 0x3e, 0xbc, 0x26, 0x52, 0xbe,
  0x20, 0x41, 0x0a, 0x3d, 0x70, 0xa0, 0x8d, 0x3d, 0xbc, 0x84, 0x55, 0xbe,
  0x10, 0xfc, 0x5b, 0xbd, 0xc0, 0x60, 0x29, 0xbe, 0xb8, 0x88, 0x40, 0xbe,
  0x40, 0xbb, 0xa2, 0xbd, 0xfc, 0x7d, 0x0f, 0x3e, 0xb0, 0x24, 0x18, 0x3e,
  0xb8, 0x7c, 0x2e, 0x3e, 0x30, 0xdd, 0xaa, 0xbd, 0x2c, 0xb6, 0x7a, 0xbe,
  0x88, 0xc8, 0x04, 0x3e, 0xec, 0x07, 0x79, 0x3e, 0x58, 0x7a, 0xe4, 0xbd,
  0xf8, 0x02, 0xdc, 0x3d, 0xec, 0xcb, 0x6b, 0xbe, 0x08, 0x6d, 0xc6, 0x3d,
  0x20, 0x68, 0x45, 0xbd, 0x70, 0x90, 0x87, 0xbd, 0x20, 0x27, 0xca, 0xbd,
  0xc0, 0x3e, 0x0d, 0xbc, 0xe0, 0xaf, 0xf3, 0xbc, 0x00, 0xed, 0x7a, 0x3b,
  0x20, 0x18, 0x97, 0x3d, 0xd0, 0x10, 0x37, 0xbd, 0x90, 0x87, 0x42, 0xbd,
  0x18, 0x48, 0xbb, 0x3d, 0xf0, 0xaf, 0xb5, 0x3d, 0x1c, 0xc7, 0x11, 0x3e,
  0xf0, 0x10, 0x33, 0xbe, 0xc0, 0xee, 0xd8, 0x3d, 0x90, 0x53, 0xe3, 0xbd,
  0x48, 0x5c, 0xd0, 0x3d, 0x70, 0x68, 0xfe, 0xbd, 0x68, 0x09, 0x31, 0x3e,
  0xf0, 0x31, 0x6f, 0x3d, 0x00, 0x47, 0x7b, 0xbe, 0xa8, 0x4b, 0xdc, 0x3d,
  0x2c, 0xaf, 0x76, 0x3e, 0xd4, 0xfe, 0x79, 0xbe, 0x3c, 0x23, 0x1a, 0x3e,
  0x08, 0x02, 0x58, 0xbe, 0xa8, 0x3c, 0xa4, 0x3d, 0x1c, 0x16, 0x06, 0xbe,
  0x80, 0x0e, 0x9b, 0x3b, 0xa0, 0xa6, 0x93, 0xbd, 0xe0, 0x3f, 0x2c, 0xbd,
  0x90, 0x49, 0x48, 0x3e, 0x54, 0x4f, 0x00, 0xbe, 0xa0, 0x9e, 0x20, 0x3d,
  0x30, 0x50, 0x00, 0xbd, 0x40, 0x3b, 0x85, 0xbd, 0xf0, 0x6f, 0x66, 0xbe,
  0x90, 0x0f, 0x2a, 0x3e, 0xac, 0x79, 0x5a, 0xbe, 0x98, 0xce, 0xe0, 0x3d,
  0xe0, 0x5a, 0xa1, 0xbd, 0x80, 0x37, 0xaa, 0x3b, 0xe0, 0x2d, 0xcd, 0x3d,
  0x00, 0xe3, 0x39, 0xbb, 0xd0, 0x2b, 0x9d, 0xbd, 0xa4, 0xab, 0x20, 0x3e,
  0x80, 0x01, 0xb1, 0xbd, 0x98, 0x13, 0x50, 0x3e, 0x58, 0x5f, 0xcb, 0xbd,
  0xe8, 0x4f, 0x57, 0xbe, 0xc0, 0x8c, 0x5f, 0xbd, 0x74, 0xdd, 0x42, 0x3e,
  0x94, 0x52, 0x0f, 0xbe, 0x78, 0xd2, 0xf4, 0xbd, 0xc0, 0x2b, 0xef, 0x3c,
  0x0c, 0xca, 0x06, 0xbe, 0x8c, 0x34, 0x7a, 0xbe, 0xa0, 0x32, 0xd9, 0x3c,
  0x5c, 0xb1, 0x06, 0x3e, 0xb8, 0x1e, 0x6d, 0x3e, 0xcc, 0x1d, 0x30, 0x3e,
  0xc4, 0xe8, 0x26, 0xbe, 0x80, 0xf2, 0x70, 0x3c, 0x60, 0xf0, 0x4f, 0xbd,
  0x04, 0x8f, 0x62, 0x3e, 0x70, 0xda, 0x22, 0xbe, 0x20, 0xb3, 0x30, 0xbe,
  0xc8, 0xbf, 0x68, 0xbe, 0x48, 0xc8, 0xfa, 0xbd, 0x14, 0x5c, 0x3f, 0x3e,
  0x80, 0xf4, 0xca, 0xbc, 0xfc, 0xae, 0x09, 0x3e, 0x54, 0x89, 0x4b, 0x3e,
  0xe0, 0x1b, 0xce, 0xbc, 0x60, 0xbc, 0x33, 0x3e, 0x20, 0xc7, 0x32, 0x3d,
  0xcc, 0x4d, 0x78, 0x3e, 0x74, 0x6f, 0x2d, 0x3e, 0x40, 0x59, 0x93, 0xbd,
  0xa0, 0xab, 0xcc, 0x3c, 0xa0, 0x48, 0xe7, 0x3c, 0x80, 0xb2, 0xbb, 0x3d,
  0x58, 0xba, 0xad, 0x3d, 0x30, 0x00, 0x2a, 0x3d, 0xc0, 0x2f, 0x37, 0x3e,
  0x80, 0x29, 0xeb, 0xbb, 0x50, 0x1a, 0xce, 0xbd, 0xc4, 0x0c, 0x18, 0xbe,
  0xc8, 0x00, 0x3c, 0xbe, 0x7c, 0x83, 0x30, 0x3e, 0x30, 0xc7, 0x4a, 0x3d,
  0x50, 0xce, 0x28, 0xbe, 0x74, 0x30, 0x03, 0xbe, 0x00, 0xbd, 0x7d, 0x3c,
  0xac, 0x1f, 0x5f, 0x3e, 0x80, 0xcf, 0x70, 0xbe, 0xd0, 0xdb, 0x31, 0x3d,
  0x80, 0xb7, 0xeb, 0x3d, 0xc0, 0x63, 0x61, 0x3c, 0x08, 0xef, 0x35, 0x3e,
  0xa8, 0x55, 0x9f, 0xbd, 0x88, 0x99, 0x56, 0xbe, 0x44, 0xd8, 0x0b, 0x3e,
  0xd8, 0x17, 0x89, 0x3d, 0xd4, 0x9e, 0x19, 0xbe, 0x30, 0xc1, 0xa7, 0x3d,
  0xfc, 0x38, 0x78, 0xbe, 0x88, 0xa4, 0xe9, 0xbd, 0x30, 0x5b, 0x95, 0xbd,
  0xa8, 0x44, 0xde, 0x3d, 0xc8, 0xc3, 0x75, 0x3e, 0xc8, 0x01, 0x5a, 0x3e,
  0xe4, 0x7c, 0x01, 0x3e, 0x80, 0xc1, 0x74, 0x3c, 0x9c, 0xd4, 0x22, 0xbe,
  0x90, 0xb8, 0x32, 0xbe, 0x60, 0xeb, 0xf5, 0xbd, 0xd8, 0x26, 0x86, 0x3d,
  0x68, 0x7d, 0x35, 0x3e, 0x0c, 0xd6, 0x51, 0x3e, 0x4c, 0xe6, 0x29, 0x3e,
  0x68, 0x25, 0x8d, 0x3d, 0x30, 0x13, 0x39, 0xbd, 0x8c, 0x8f, 0x6d, 0x3e,
  0xcc, 0x00, 0x32, 0xbe, 0x04, 0x88, 0x72, 0xbe, 0x28, 0x46, 0x63, 0x3e,
  0xe0, 0x98, 0xf4, 0xbc, 0xe8, 0xa9, 0x71, 0xbe, 0x68, 0xeb, 0x5c, 0xbe,
  0x10, 0x9d, 0xf2, 0x3d, 0x58, 0x39, 0x87, 0xbd, 0x5c, 0xaa, 0x24, 0x3e,
  0x50, 0x53, 0x1c, 0x3e, 0xb8, 0xff, 0x91, 0xbd, 0xbc, 0xfc, 0x65, 0xbe,
  0x38, 0x66, 0x00, 0xbe, 0x00, 0xc4, 0xd6, 0x3d, 0x90, 0x54, 0x29, 0x3d,
  0xb0, 0x76, 0x7f, 0x3d, 0x40, 0x4b, 0x33, 0xbc, 0x30, 0x9c, 0x57, 0xbe,
  0x00, 0x0b, 0x79, 0xbe, 0xd0, 0xe2, 0x76, 0x3d, 0xa0, 0xc5, 0x89, 0xbd,
  0x00, 0x9c, 0x79, 0xbe, 0xf8, 0x4c, 0xac, 0x3d, 0x20, 0x10, 0xe6, 0x3d,
  0x48, 0x7a, 0x8e, 0xbd, 0x90, 0xd3, 0xb1, 0xbd, 0x8c, 0x3c, 0x27, 0xbe,
  0x68, 0x25, 0x08, 0xbe, 0xac, 0x08, 0x5a, 0x3e, 0x00, 0x1b, 0x3f, 0xbb,
  0x80, 0x83, 0x25, 0x3d, 0xa8, 0x9a, 0x8c, 0xbd, 0xa0, 0xce, 0xa3, 0xbd,
  0x30, 0xd3, 0xf1, 0x3d, 0x40, 0x83, 0xc5, 0x3d, 0xf0, 0xbe, 0x52, 0x3d,
  0x58, 0xbd, 0xe5, 0xbd, 0x28, 0x1a, 0x43, 0x3e, 0xc0, 0x21, 0x81, 0x3c,
  0xc0, 0x5f, 0xeb, 0xbc, 0xc8, 0x8f, 0xde, 0x3d, 0x68, 0xf1, 0x5a, 0x3e,
  0xa8, 0xf7, 0x7e, 0x3e, 0x0c, 0xe3, 0x7d, 0x3e, 0xb0, 0x8d, 0x5d, 0xbd,
  0x04, 0x3d, 0x5a, 0xbe, 0x84, 0x8d, 0x59, 0x3e, 0x80, 0xcf, 0xcc, 0x3b,
  0xac, 0xd1, 0x64, 0xbe, 0xc8, 0xec, 0x78, 0x3e, 0xe4, 0xef, 0x73, 0x3e,
  0xd0, 0xf0, 0x3a, 0x3d, 0x90, 0xfd, 0xae, 0xbd, 0xb0, 0x22, 0x3c, 0x3e,
  0xe4, 0x37, 0x3a, 0xbe, 0x08, 0x82, 0x45, 0x3e, 0x08, 0x52, 0x5d, 0x3e,
  0xc0, 0x02, 0x11, 0xbe, 0x80, 0x02, 0x1e, 0xbc, 0xa0, 0x43, 0xaa, 0x3c,
  0xd8, 0x80, 0xd4, 0x3d, 0xb4, 0x95, 0x6b, 0x3e, 0x50, 0x4a, 0x7f, 0x3e,
  0xb0, 0xbe, 0xa4, 0xbd, 0x30, 0xc8, 0x80, 0xbd, 0x00, 0x0f, 0x53, 0x3d,
  0xa0, 0xe3, 0xb2, 0xbd, 0x4c, 0x45, 0x6f, 0x3e, 0xe8, 0x9f, 0xa4, 0xbd,
  0x18, 0xdb, 0x19, 0x3e, 0x38, 0xac, 0x18, 0x3e, 0xd0, 0xa2, 0x75, 0xbe,
  0x00, 0x9d, 0xef, 0xbc, 0x58, 0x62, 0x32, 0x3e, 0x6c, 0xea, 0x3a, 0xbe,
  0x44, 0x0b, 0x35, 0x3e, 0x6c, 0xdc, 0x3a, 0x3e, 0x40, 0x6e, 0x90, 0x3c,
  0x28, 0x0a, 0xa1, 0x3d, 0x88, 0xfc, 0x4b, 0x3e, 0xb0, 0x60, 0x08, 0xbe,
  0x00, 0xe0, 0x46, 0xbc, 0x28, 0xa3, 0x5a, 0xbe, 0x78, 0xc7, 0xca, 0x3d,
  0x50, 0x94, 0x9f, 0x3d, 0x30, 0x39, 0x71, 0x3d, 0x04, 0x8d, 0x20, 0x3e,
  0xc4, 0x3f, 0x59, 0x3e, 0x24, 0x08, 0x20, 0xbe, 0xb0, 0xef, 0x69, 0x3d,
  0x70, 0x5a, 0x3f, 0x3d, 0x78, 0xcb, 0xab, 0x3d, 0x0c, 0x37, 0x6b, 0x3e,
  0x80, 0x60, 0x11, 0xbc, 0x4c, 0x95, 0x18, 0xbe, 0x38, 0x01, 0x22, 0xbe,
  0x44, 0x89, 0x3a, 0x3e, 0x50, 0xa9, 0x4f, 0x3e, 0xd0, 0xbf, 0x86, 0x3d,
  0x88, 0xa9, 0x8c, 0x3d, 0xd0, 0x84, 0x48, 0x3d, 0xf8, 0x6b, 0x16, 0xbe,
  0x08, 0x0d, 0xec, 0xbd, 0x68, 0x5b, 0xc4, 0xbd, 0x28, 0x1b, 0x01, 0xbe,
  0xc0, 0x57, 0x4b, 0xbd, 0x24, 0xee, 0x13, 0xbe, 0x34, 0xbc, 0x33, 0x3e,
  0x80, 0xcb, 0xb7, 0xbd, 0x60, 0x48, 0x86, 0xbc, 0x0c, 0x0a, 0x5a, 0x3e,
  0x70, 0x90, 0x51, 0xbd, 0x70, 0xeb, 0xd4, 0xbd, 0x58, 0x0c, 0x45, 0xbe,
  0x40, 0x02, 0xb5, 0xbd, 0x88, 0x9c, 0x64, 0x3e, 0xd8, 0x19, 0x1d, 0x3e,
  0x90, 0xba, 0x5f, 0x3e, 0xc0, 0x50, 0xae, 0xbd, 0x14, 0x12, 0x6d, 0xbe,
  0x28, 0x07, 0x84, 0xbd, 0x10, 0x6c, 0x0e, 0xbe, 0x90, 0x73, 0x32, 0x3e,
  0x98, 0x55, 0xe1, 0xbd, 0x80, 0xc6, 0x6a, 0x3e, 0x50, 0x47, 0x56, 0x3e,
  0x40, 0x83, 0xc4, 0x3c, 0x90, 0x11, 0x74, 0xbe, 0xe8, 0xfe, 0x06, 0xbe,
  0x10, 0x99, 0x03, 0x3e, 0xa8, 0xcc, 0x56, 0xbe, 0x20, 0xd2, 0x04, 0xbd,
  0xec, 0x9d, 0x38, 0xbe, 0x20, 0xf4, 0x32, 0xbe, 0x5c, 0x31, 0x3c, 0xbe,
  0x80, 0x54, 0x69, 0x3d, 0x80, 0xf8, 0xa6, 0x3c, 0xe0, 0x84, 0x19, 0xbe,
  0xfc, 0xce, 0x3f, 0x3e, 0xac, 0x4c, 0x19, 0xbe, 0xe0, 0x34, 0x17, 0x3e,
  0x10, 0xcc, 0xca, 0xbd, 0x40, 0xab, 0x25, 0x3d, 0xe8, 0x2b, 0x43, 0x3e,
  0x90, 0xd8, 0x0a, 0x3e, 0x80, 0xaf, 0x1e, 0x3c, 0x90, 0x27, 0x2c, 0x3d,
  0x60, 0x09, 0x2a, 0x3d, 0x64, 0xee, 0x09, 0xbe, 0x04, 0x61, 0x07, 0xbe,
  0x98, 0xce, 0xc3, 0x3d, 0xfc, 0x11, 0x3c, 0x3e, 0x70, 0x36, 0x46, 0xbd,
  0xfc, 0x5e, 0x12, 0x3e, 0x10, 0x56, 0x14, 0x3e, 0xc0, 0x26, 0x35, 0x3d,
  0x40, 0x78, 0x9f, 0xbd, 0xd0, 0xac, 0x94, 0xbd, 0xe0, 0x36, 0xd0, 0xbc,
  0x34, 0x9e, 0x27, 0x3e, 0xe0, 0xfb, 0x09, 0xbe, 0x78, 0xc9, 0x64, 0x3e,
  0x7c, 0xfa, 0x32, 0x3e, 0x40, 0xb8, 0x2e, 0x3e, 0xa8, 0xb2, 0xec, 0xbd,
  0x9c, 0xb4, 0x09, 0xbe, 0x00, 0xcd, 0x36, 0xbe, 0xc4, 0x39, 0x15, 0x3e,
  0x20, 0x1a, 0x8f, 0xbc, 0x9c, 0x27, 0x06, 0x3e, 0x18, 0xa3, 0x30, 0x3e,
  0x5c, 0x53, 0x2f, 0xbe, 0x50, 0x38, 0x7f, 0x3d, 0xb0, 0xea, 0x4d, 0x3d,
  0xfc, 0xb8, 0x5c, 0x3e, 0x00, 0x24, 0x90, 0x3b, 0x58, 0x23, 0xd3, 0xbd,
  0xf4, 0xff, 0x1c, 0x3e, 0xe8, 0x0b, 0xfb, 0x3d, 0xb4, 0x83, 0x77, 0xbe,
  0x5c, 0xad, 0x3e, 0xbe, 0xa8, 0xe0, 0x7e, 0x3e, 0x40, 0x41, 0x7c, 0x3e,
  0x48, 0x67, 0x44, 0xbe, 0xd4, 0x05, 0x3b, 0xbe, 0xa8, 0x5b, 0xfa, 0x3d,
  0xe0, 0x5d, 0x8e, 0xbc, 0xd0, 0x65, 0x66, 0xbe, 0xc0, 0x23, 0x9a, 0xbc,
  0xc0, 0xa4, 0xf0, 0x3c, 0x74, 0xa2, 0x3a, 0x3e, 0xd0, 0xe8, 0xe6, 0xbd,
  0x00, 0xfe, 0xe7, 0xba, 0x40, 0x1c, 0x85, 0x3c, 0x60, 0xd0, 0x16, 0x3d,
  0x58, 0xaa, 0x15, 0xbe, 0x48, 0xda, 0x19, 0xbe, 0x38, 0xa9, 0xa2, 0xbd,
  0x80, 0x5f, 0x8e, 0x3d, 0x20, 0x21, 0x94, 0x3d, 0xc8, 0x77, 0xe4, 0xbd,
  0x28, 0x15, 0xcb, 0xbd, 0xa0, 0xd7, 0x89, 0x3d, 0x94, 0x20, 0x64, 0xbe,
  0xb4, 0x5a, 0x53, 0xbe, 0xdc, 0x05, 0x59, 0x3e, 0x84, 0xe1, 0x58, 0x3e,
  0x00, 0xb6, 0x13, 0x3b, 0x80, 0x05, 0x07, 0xbe, 0xa0, 0x6b, 0xf2, 0xbc,
  0x68, 0x4d, 0x31, 0x3e, 0x00, 0x4f, 0x10, 0xbb, 0xb8, 0x9e, 0x22, 0x3e,
  0x1c, 0x35, 0x72, 0x3e, 0x28, 0x9f, 0xdb, 0xbd, 0xa4, 0x72, 0x22, 0x3e,
  0x50, 0xdd, 0x9c, 0x3d, 0x48, 0x40, 0xcb, 0xbd, 0xb0, 0x48, 0x6b, 0xbd,
  0x80, 0x60, 0x17, 0x3d, 0xd4, 0x81, 0x65, 0xbe, 0x04, 0x71, 0x08, 0x3e,
  0x20, 0x32, 0xe9, 0x3c, 0xac, 0x2a, 0x09, 0x3e, 0x18, 0x09, 0x61, 0x3e,
  0x38, 0xad, 0x0c, 0xbe, 0x6c, 0xd3, 0x73, 0xbe, 0x0c, 0x00, 0x2c, 0xbe,
  0x1c, 0xdc, 0x39, 0x3e, 0x82, 0xdf, 0xff, 0xff, 0x10, 0x00, 0x00, 0x00,
  0x09, 0x00, 0x00, 0x00, 0x1c, 0x00, 0x00, 0x00, 0x38, 0x00, 0x00, 0x00,
  0x04, 0x00, 0x00, 0x00, 0x10, 0x00, 0x00, 0x00, 0x04, 0x00, 0x00, 0x00,
  0x01, 0x00, 0x00, 0x00, 0x08, 0x00, 0x00, 0x00, 0x1b, 0x00, 0x00, 0x00,
  0x73, 0x65, 0x71, 0x75, 0x65, 0x6e, 0x74, 0x69, 0x61, 0x6c, 0x2f, 0x63,
  0x6f, 0x6e, 0x76, 0x32, 0x64, 0x5f, 0x31, 0x2f, 0x43, 0x6f, 0x6e, 0x76,
  0x32, 0x44, 0x31, 0x00, 0xf8, 0xde, 0xff, 0xff, 0xe6, 0xdf, 0xff, 0xff,
  0x04, 0x00, 0x00, 0x00, 0x40, 0x00, 0x00, 0x00, 0x00, 0x00, 0x00, 0x00,
  0x00, 0x00, 0x00, 0x00, 0x00, 0x00, 0x00, 0x00, 0x00, 0x00, 0x00, 0x00,
  0x00, 0x00, 0x00, 0x00, 0x00, 0x00, 0x00, 0x00, 0x00, 0x00, 0x00, 0x00,
  0x00, 0x00, 0x00, 0x00, 0x00, 0x00, 0x00, 0x00, 0x00, 0x00, 0x00, 0x00,
  0x00, 0x00, 0x00, 0x00, 0x00, 0x00, 0x00, 0x00, 0x00, 0x00, 0x00, 0x00,
  0x00, 0x00, 0x00, 0x00, 0x00, 0x00, 0x00, 0x00, 0x00, 0x00, 0x00, 0x00,
  0x1a, 0xe0, 0xff, 0xff, 0x10, 0x00, 0x00, 0x00, 0x08, 0x00, 0x00, 0x00,
  0x10, 0x00, 0x00, 0x00, 0x2c, 0x00, 0x00, 0x00, 0x01, 0x00, 0x00, 0x00,
  0x10, 0x00, 0x00, 0x00, 0x1a, 0x00, 0x00, 0x00, 0x73, 0x65, 0x71, 0x75,
  0x65, 0x6e, 0x74, 0x69, 0x61, 0x6c, 0x2f, 0x63, 0x6f, 0x6e, 0x76, 0x32,
  0x64, 0x5f, 0x31, 0x2f, 0x43, 0x6f, 0x6e, 0x76, 0x32, 0x44, 0x00, 0x00,
  0x84, 0xdf, 0xff, 0xff, 0x72, 0xe0, 0xff, 0xff, 0x04, 0x00, 0x00, 0x00,
  0x80, 0x01, 0x00, 0x00, 0xbe, 0x41, 0x2b, 0xbe, 0x98, 0x27, 0x4b, 0xbd,
  0x98, 0x50, 0x18, 0xbe, 0x29, 0x99, 0x48, 0xbe, 0x08, 0x2f, 0x01, 0xbe,
  0xc0, 0x61, 0x31, 0xbe, 0xa8, 0xf9, 0xa2, 0xbd, 0xc8, 0xe4, 0xb7, 0xbd,
  0xeb, 0x0e, 0x70, 0x3e, 0xc6, 0x3e, 0x0d, 0xbe, 0xdc, 0x0d, 0x4a, 0x3d,
  0x30, 0xc3, 0x1d, 0xbe, 0x93, 0xb2, 0x52, 0x3e, 0x38, 0xab, 0xc7, 0x3c,
  0xac, 0x05, 0x3d, 0x3d, 0x4e, 0x40, 0xf4, 0xbd, 0x87, 0xe6, 0x41, 0x3e,
  0x7f, 0x59, 0x13, 0x3e, 0x78, 0x2f, 0xee, 0xbc, 0xa0, 0xe6, 0x18, 0xbc,
  0x2c, 0x3e, 0x71, 0xbd, 0xd4, 0x98, 0x67, 0x3d, 0xc6, 0xd7, 0xbb, 0x3d,
  0x27, 0xe1, 0x6b, 0x3e, 0x7c, 0x17, 0x37, 0xbe, 0x88, 0x58, 0x9a, 0x3c,
  0x5c, 0xec, 0x24, 0x3d, 0x01, 0x2f, 0x5c, 0xbe, 0xf1, 0xd8, 0x69, 0x3e,
  0x20, 0xcf, 0x99, 0xbd, 0x96, 0x4d, 0x2b, 0xbe, 0x91, 0x78, 0x3e, 0xbe,
  0x37, 0x4f, 0x6f, 0xbe, 0x80, 0xee, 0x65, 0xbb, 0x78, 0xdf, 0xc5, 0xbc,
  0x28, 0xd3, 0xf6, 0x3c, 0xe5, 0x08, 0x56, 0xbe, 0xaf, 0xa5, 0xf3, 0xbd,
  0x7c, 0x7d, 0x19, 0xbe, 0xee, 0x26, 0x70, 0xbe, 0x25, 0x5d, 0x2d, 0xbe,
  0x1f, 0x64, 0x15, 0x3e, 0xa1, 0x98, 0x11, 0xbe, 0xd8, 0x78, 0xda, 0xbd,
  0xf8, 0x9e, 0x6d, 0xbe, 0xb5, 0x69, 0x5d, 0x3e, 0x9a, 0xe1, 0xab, 0x3d,
  0x41, 0x9f, 0x69, 0x3e, 0xb4, 0xb7, 0x80, 0xbd, 0x64, 0xe5, 0x0a, 0x3d,
  0x10, 0xa8, 0x8d, 0xbd, 0x40, 0x58, 0x53, 0xbc, 0x4f, 0xd0, 0x4c, 0x3e,
  0xcb, 0x03, 0x22, 0x3e, 0x43, 0xa0, 0x49, 0xbe, 0xe1, 0xae, 0x6e, 0xbe,
  0xae, 0x3a, 0xae, 0x3d, 0x2c, 0x3c, 0xe3, 0xbd, 0xb2, 0xb8, 0x95, 0x3d,
  0x80, 0xa9, 0xfa, 0xbd, 0x60, 0xc7, 0x8c, 0xbd, 0x2a, 0xf2, 0xc7, 0x3d,
  0x82, 0x47, 0x6e, 0xbe, 0x29, 0x77, 0x50, 0xbe, 0xa4, 0x6b, 0x4d, 0x3d,
  0xc9, 0xc9, 0x1d, 0xbe, 0x3c, 0xf7, 0xc7, 0xbd, 0x00, 0xe6, 0x04, 0x3c,
  0x72, 0x2b, 0xe5, 0x3d, 0xd7, 0x82, 0x62, 0x3e, 0x7b, 0xff, 0x4d, 0x3e,
  0x1c, 0x0f, 0x59, 0x3d, 0x4e, 0x40, 0x87, 0x3d, 0x86, 0x44, 0xeb, 0x3d,
  0x6b, 0x9f, 0x11, 0x3e, 0xd0, 0x42, 0x05, 0x3c, 0x76, 0xf4, 0xab, 0xbd,
  0x80, 0x2a, 0xee, 0x3b, 0x17, 0x2f, 0x56, 0x3e, 0x2a, 0xb2, 0xf8, 0x3d,
  0x47, 0xe0, 0x2a, 0x3e, 0x34, 0x42, 0x6e, 0xbd, 0x90, 0x0a, 0x03, 0xbc,
  0x28, 0x45, 0x29, 0xbd, 0x32, 0x85, 0x8a, 0x3d, 0x90, 0xcc, 0xa9, 0xbd,
  0x16, 0xb8, 0x6d, 0xbe, 0x2e, 0xec, 0x5b, 0xbe, 0x21, 0x38, 0x3e, 0x3e,
  0x73, 0x67, 0x28, 0x3e, 0x71, 0xa3, 0x33, 0xbe, 0x70, 0x04, 0x13, 0xbc,
  0x09, 0x49, 0x56, 0x3e, 0x7e, 0xc2, 0x84, 0x3d, 0x6d, 0xf8, 0x70, 0x3e,
  0x10, 0x66, 0x0c, 0xbd, 0xe6, 0xe1, 0xff, 0xff, 0x10, 0x00, 0x00, 0x00,
  0x07, 0x00, 0x00, 0x00, 0x1c, 0x00, 0x00, 0x00, 0x38, 0x00, 0x00, 0x00,
  0x04, 0x00, 0x00, 0x00, 0x08, 0x00, 0x00, 0x00, 0x04, 0x00, 0x00, 0x00,
  0x03, 0x00, 0x00, 0x00, 0x01, 0x00, 0x00, 0x00, 0x19, 0x00, 0x00, 0x00,
  0x73, 0x65, 0x71, 0x75, 0x65, 0x6e, 0x74, 0x69, 0x61, 0x6c, 0x2f, 0x63,
  0x6f, 0x6e, 0x76, 0x32, 0x64, 0x2f, 0x43, 0x6f, 0x6e, 0x76, 0x32, 0x44,
  0x31, 0x00, 0x00, 0x00, 0x5c, 0xe1, 0xff, 0xff, 0x4a, 0xe2, 0xff, 0xff,
  0x04, 0x00, 0x00, 0x00, 0x20, 0x00, 0x00, 0x00, 0x00, 0x00, 0x00, 0x00,
  0x00, 0x00, 0x00, 0x00, 0x00, 0x00, 0x00, 0x00, 0x00, 0x00, 0x00, 0x00,
  0x00, 0x00, 0x00, 0x00, 0x00, 0x00, 0x00, 0x00, 0x00, 0x00, 0x00, 0x00,
  0x00, 0x00, 0x00, 0x00, 0x5e, 0xe2, 0xff, 0xff, 0x10, 0x00, 0x00, 0x00,
  0x06, 0x00, 0x00, 0x00, 0x10, 0x00, 0x00, 0x00, 0x2c, 0x00, 0x00, 0x00,
  0x01, 0x00, 0x00, 0x00, 0x08, 0x00, 0x00, 0x00, 0x18, 0x00, 0x00, 0x00,
  0x73, 0x65, 0x71, 0x75, 0x65, 0x6e, 0x74, 0x69, 0x61, 0x6c, 0x2f, 0x63,
  0x6f, 0x6e, 0x76, 0x32, 0x64, 0x2f, 0x43, 0x6f, 0x6e, 0x76, 0x32, 0x44,
  0x00, 0x00, 0x00, 0x00, 0xc8, 0xe1, 0xff, 0xff, 0xb6, 0xe2, 0xff, 0xff,
  0x04, 0x00, 0x00, 0x00, 0x40, 0x00, 0x00, 0x00, 0x1a, 0x93, 0x0f, 0x3f,
  0x9c, 0x43, 0x15, 0xbf, 0xe0, 0x73, 0x09, 0xbf, 0x40, 0x4e, 0x33, 0x3e,
  0x60, 0x12, 0xeb, 0x3e, 0x7e, 0x31, 0x7e, 0xbe, 0x84, 0xc8, 0xa5, 0x3e,
  0x1c, 0x9e, 0xbc, 0x3e, 0x30, 0xa9, 0x26, 0x3d, 0x00, 0xd5, 0x24, 0x3b,
  0x04, 0xd6, 0x9b, 0x3e, 0x9e, 0x8b, 0xe1, 0xbe, 0x50, 0x55, 0xf7, 0x3e,
  0xd8, 0xbb, 0xd8, 0x3e, 0x9a, 0x0c, 0xc9, 0xbe, 0x6a, 0x1f, 0xb8, 0x3e,
  0xea, 0xe2, 0xff, 0xff, 0x10, 0x00, 0x00, 0x00, 0x05, 0x00, 0x00, 0x00,
  0x14, 0x00, 0x00, 0x00, 0x30, 0x00, 0x00, 0x00, 0x02, 0x00, 0x00, 0x00,
  0x01, 0x00, 0x00, 0x00, 0x10, 0x00, 0x00, 0x00, 0x19, 0x00, 0x00, 0x00,
  0x73, 0x65, 0x71, 0x75, 0x65, 0x6e, 0x74, 0x69, 0x61, 0x6c, 0x2f, 0x64,
  0x65, 0x6e, 0x73, 0x65, 0x5f, 0x31, 0x2f, 0x4d, 0x61, 0x74, 0x4d, 0x75,
  0x6c, 0x00, 0x00, 0x00, 0x58, 0xe2, 0xff, 0xff, 0x46, 0xe3, 0xff, 0xff,
  0x04, 0x00, 0x00, 0x00, 0x00, 0x1c, 0x00, 0x00, 0x51, 0x76, 0x23, 0x3e,
  0xe1, 0x19, 0x4b, 0xbe, 0x74, 0x32, 0x79, 0x3d, 0x25, 0x24, 0x52, 0x3e,
  0x2e, 0x48, 0xc0, 0x3d, 0x76, 0x78, 0x5a, 0xbe, 0xff, 0x12, 0x18, 0x3e,
  0xdb, 0xad, 0x0f, 0x3e, 0xf6, 0x9a, 0xba, 0x3d, 0x6a, 0xfa, 0x8c, 0xbd,
  0xc0, 0xd8, 0x3a, 0xbd, 0xf0, 0xad, 0xda, 0xbd, 0x88, 0x5e, 0x3a, 0xbd,
  0x52, 0x3b, 0x90, 0xbd, 0x1e, 0xbd, 0x9d, 0x3d, 0x10, 0x0d, 0x5f, 0xbd,
  0x43, 0x20, 0xfe, 0xbd, 0xfe, 0xb8, 0x19, 0xbe, 0x00, 0xfb, 0x7d, 0x3c,
  0xc2, 0x9f, 0x96, 0x3d, 0x5e, 0xee, 0xb4, 0xbd, 0x0e, 0x3c, 0x33, 0xbe,
  0x73, 0x54, 0x47, 0xbe, 0x22, 0x59, 0xa8, 0x3d, 0xe2, 0xac, 0x05, 0xbe,
  0xf7, 0x0b, 0x52, 0x3e, 0xcb, 0x76, 0x2d, 0x3e, 0xae, 0x2e, 0x97, 0x3d,
  0x23, 0xee, 0xd6, 0xbd, 0x68, 0xfa, 0x8b, 0x3c, 0x03, 0xbc, 0xf7, 0xbd,
  0x41, 0xd0, 0xcd, 0xbd, 0xc6, 0x4a, 0xf5, 0x3d, 0x6e, 0xeb, 0x8f, 0xbd,
  0x48, 0x17, 0x22, 0xbe, 0x58, 0x5c, 0x78, 0xbd, 0x16, 0x4b, 0x8b, 0xbd,
  0x51, 0xa2, 0x3e, 0x3e, 0x70, 0x85, 0x89, 0xbc, 0x50, 0xba, 0x41, 0xbe,
  0x5c, 0xd2, 0x9a, 0xbd, 0x92, 0x53, 0x99, 0x3d, 0x1e, 0x2a, 0xd7, 0x3d,
  0x45, 0x91, 0xf5, 0xbd, 0xad, 0x24, 0xc3, 0xbd, 0x38, 0x83, 0x11, 0xbe,
  0x80, 0xf5, 0x33, 0x3c, 0x79, 0x9b, 0xde, 0xbd, 0xfc, 0x2e, 0x31, 0xbe,
  0x94, 0x94, 0x4d, 0x3d, 0x04, 0x2a, 0x16, 0xbe, 0xc0, 0x85, 0x5a, 0x3c,
  0x43, 0x84, 0x0a, 0xbe, 0xac, 0xd4, 0x2d, 0xbe, 0xec, 0x63, 0x58, 0x3d,
  0xaa, 0x17, 0x5c, 0xbe, 0xf6, 0x04, 0xa5, 0xbd, 0xfd, 0xa0, 0x36, 0xbe,
  0x20, 0x53, 0x04, 0x3d, 0xc4, 0xa3, 0xf7, 0xbd, 0x52, 0x4f, 0xee, 0x3d,
  0xb6, 0xa3, 0xa2, 0xbd, 0x6a, 0x44, 0x1e, 0xbe, 0x3b, 0x84, 0x0c, 0x3e,
  0x1c, 0x6c, 0x41, 0xbe, 0x5e, 0x55, 0xbc, 0xbd, 0xa2, 0xe4, 0x5a, 0xbe,
  0x4c, 0x88, 0x30, 0xbd, 0x60, 0x24, 0x7e, 0x3c, 0x96, 0xb5, 0xa4, 0xbd,
  0xeb, 0x6e, 0x09, 0x3e, 0xcc, 0xf3, 0x9b, 0xbd, 0x60, 0x1c, 0xad, 0xbc,
  0xb7, 0xed, 0x5a, 0x3e, 0xfb, 0x65, 0x08, 0xbe, 0x24, 0x5f, 0x58, 0xbd,
  0xf6, 0xb9, 0xf3, 0xbd, 0x3a, 0x53, 0xb2, 0x3d, 0xa2, 0x6e, 0xc0, 0x3d,
  0x93, 0xc7, 0x23, 0x3e, 0x8d, 0x19, 0x1c, 0x3e, 0xe0, 0x57, 0xc8, 0x3c,
  0x96, 0xc8, 0xe5, 0x3d, 0x9e, 0x1e, 0xaf, 0x3d, 0x84, 0x93, 0x77, 0x3d,
  0xe0, 0x6a, 0x19, 0x3c, 0x87, 0x09, 0x19, 0x3e, 0x81, 0xf3, 0xd5, 0xbd,
  0xf6, 0x94, 0xca, 0x3d, 0xc8, 0x27, 0x89, 0xbd, 0xe8, 0xed, 0x88, 0xbc,
  0x60, 0x67, 0xe0, 0xbb, 0x2e, 0x3a, 0xaa, 0xbd, 0xe2, 0x91, 0x88, 0x3d,
  0x4d, 0x11, 0x0d, 0x3e, 0x5e, 0x4b, 0x16, 0xbe, 0x32, 0x84, 0xee, 0x3d,
  0x4b, 0xc0, 0x2a, 0xbe, 0x24, 0xab, 0x2a, 0xbd, 0x0e, 0x0a, 0x5c, 0xbe,
  0x5c, 0x5e, 0x26, 0xbe, 0xc0, 0x98, 0x97, 0xbc, 0x49, 0xe3, 0x2a, 0x3e,
  0x7c, 0xef, 0xa6, 0xbd, 0xd8, 0x14, 0x25, 0xbd, 0x3d, 0x40, 0x4b, 0x3e,
  0x8e, 0x5a, 0x40, 0xbe, 0xc2, 0xf3, 0xdd, 0x3d, 0x09, 0x7f, 0xfb, 0xbd,
  0x08, 0x16, 0x3b, 0xbe, 0x48, 0xe5, 0x30, 0xbe, 0x56, 0x9b, 0xd5, 0x3d,
  0x80, 0x0d, 0xfb, 0x3a, 0x30, 0x1d, 0x94, 0xbc, 0xe8, 0xa5, 0xfb, 0xbc,
  0xb8, 0x12, 0xb8, 0x3c, 0xd7, 0x3c, 0x45, 0xbe, 0x35, 0x25, 0x35, 0x3e,
  0x42, 0xfe, 0xa0, 0x3d, 0x1c, 0xcd, 0xba, 0xbd, 0x43, 0x19, 0x47, 0x3e,
  0xff, 0x73, 0xd0, 0xbd, 0xb8, 0xde, 0x81, 0xbc, 0x66, 0x15, 0x12, 0xbe,
  0x10, 0xe8, 0xe8, 0xbd, 0xff, 0xaa, 0x01, 0xbe, 0x16, 0xbe, 0x15, 0xbe,
  0xee, 0x55, 0x2c, 0xbe, 0x84, 0x09, 0x0f, 0xbe, 0x88, 0x46, 0x36, 0xbd,
  0x26, 0x32, 0xca, 0x3d, 0x61, 0xc3, 0x3a, 0x3e, 0x8c, 0x06, 0x58, 0x3d,
  0xe9, 0x3d, 0x3e, 0x3e, 0x84, 0xc7, 0x44, 0x3d, 0xec, 0x54, 0x32, 0x3d,
  0x33, 0x95, 0x1b, 0x3e, 0xc8, 0xbb, 0xb8, 0xbd, 0x3a, 0x35, 0x87, 0x3d,
  0x38, 0x2e, 0x9b, 0x3c, 0x3f, 0xc8, 0x31, 0x3e, 0x13, 0x24, 0x2b, 0x3e,
  0xc9, 0x49, 0x4c, 0xbe, 0x8d, 0x03, 0x31, 0x3e, 0x50, 0x98, 0xa9, 0xbd,
  0x4a, 0xdc, 0xf2, 0xbd, 0x87, 0x99, 0x42, 0x3e, 0xea, 0x4c, 0xe7, 0x3d,
  0x97, 0x72, 0x43, 0x3e, 0x9c, 0x67, 0xaf, 0xbd, 0x84, 0x3f, 0xa3, 0xbd,
  0x40, 0x3e, 0x35, 0xbb, 0x06, 0x89, 0xb0, 0x3d, 0x71, 0x9c, 0x55, 0xbe,
  0xbf, 0x06, 0x49, 0x3e, 0x18, 0x23, 0xcb, 0x3c, 0x38, 0x9b, 0x4f, 0xbd,
  0x27, 0x27, 0x46, 0x3e, 0x51, 0x63, 0x4e, 0xbe, 0xf6, 0xf6, 0x92, 0x3d,
  0x0e, 0x24, 0xcc, 0x3d, 0x6c, 0x5a, 0x54, 0xbd, 0x84, 0xcc, 0x2b, 0x3d,
  0x95, 0xf1, 0x33, 0x3e, 0x2e, 0x94, 0x8e, 0x3d, 0x69, 0x40, 0x1e, 0x3e,
  0xb2, 0xb1, 0xb1, 0x3d, 0x7a, 0x95, 0xfe, 0x3d, 0xc6, 0x83, 0x88, 0x3d,
  0xc4, 0x04, 0x29, 0xbe, 0xb4, 0xc6, 0x47, 0xbd, 0xc7, 0x49, 0xda, 0xbd,
  0x9c, 0x88, 0x97, 0xbd, 0xc4, 0xf0, 0x0e, 0xbe, 0x28, 0x9f, 0x16, 0xbe,
  0x13, 0xd5, 0x27, 0xbe, 0x7a, 0xb9, 0x8d, 0x3d, 0xf7, 0x6d, 0x0a, 0x3e,
  0x50, 0x06, 0x50, 0x3c, 0x2f, 0x46, 0x59, 0x3e, 0x18, 0xbd, 0x40, 0xbd,
  0xbe, 0x23, 0xb7, 0xbd, 0x0f, 0xe4, 0x30, 0x3e, 0x40, 0xb7, 0xd4, 0xbb,
  0x10, 0x9b, 0x1d, 0x3c, 0xfe, 0x5d, 0xd7, 0x3d, 0x35, 0xe0, 0x40, 0xbe,
  0x8d, 0x10, 0x4f, 0x3e, 0x99, 0x32, 0x24, 0x3e, 0xe4, 0x84, 0x51, 0xbe,
  0x2a, 0x2e, 0xff, 0x3d, 0x04, 0x02, 0x20, 0x3d, 0x1e, 0x24, 0x40, 0xbe,
  0xfe, 0x56, 0x09, 0xbe, 0xe4, 0xab, 0xcc, 0xbd, 0x2b, 0x54, 0x54, 0x3e,
  0xf0, 0x2a, 0xea, 0x3c, 0xc4, 0x8b, 0x09, 0xbe, 0xc6, 0x4a, 0x20, 0xbe,
  0x41, 0x6c, 0x0c, 0xbe, 0x7b, 0x0f, 0x4f, 0x3e, 0x41, 0x1f, 0x49, 0xbe,
  0x5c, 0x3b, 0x38, 0x3d, 0xae, 0xa2, 0x5a, 0xbe, 0x94, 0xf3, 0x37, 0x3d,
  0xa4, 0x3c, 0x29, 0xbe, 0xf9, 0x6c, 0x40, 0xbe, 0x82, 0x68, 0x8a, 0x3d,
  0xec, 0x8f, 0x47, 0xbe, 0x70, 0xdd, 0x05, 0xbd, 0x37, 0x00, 0x32, 0x3e,
  0x06, 0x77, 0x54, 0xbe, 0xc0, 0x51, 0x9c, 0x3b, 0x88, 0x01, 0x8a, 0xbd,
  0x3e, 0x0e, 0x92, 0x3d, 0x2a, 0xed, 0x25, 0xbe, 0xb0, 0x21, 0x97, 0xbd,
  0x6d, 0x4d, 0x20, 0xbe, 0xea, 0xa6, 0x81, 0x3d, 0x05, 0x37, 0x23, 0x3e,
  0xc8, 0xc5, 0xc4, 0x3c, 0x6b, 0x85, 0xd1, 0xbd, 0xa8, 0xa7, 0x2b, 0xbe,
  0x48, 0xf5, 0xf2, 0x3c, 0xfe, 0xd1, 0xda, 0x3d, 0xf9, 0x14, 0x4c, 0x3e,
  0x2a, 0x12, 0xe6, 0x3d, 0x9e, 0x89, 0x8f, 0x3d, 0x11, 0x27, 0x2d, 0x3e,
  0xf6, 0x90, 0xd0, 0x3d, 0x50, 0x64, 0x1f, 0x3c, 0xf4, 0x87, 0x42, 0xbe,
  0xc9, 0x87, 0x51, 0x3e, 0x4b, 0x5a, 0x4a, 0x3e, 0x44, 0x58, 0x0f, 0x3d,
  0x57, 0x30, 0xe0, 0xbd, 0x66, 0x80, 0x88, 0x3d, 0xa9, 0x93, 0x58, 0x3e,
  0x9f, 0x21, 0x44, 0x3e, 0x74, 0x9f, 0x4a, 0x3d, 0xee, 0xf6, 0xf4, 0x3d,
  0x33, 0xf9, 0x2e, 0x3e, 0xdb, 0xc0, 0x19, 0x3e, 0xa3, 0x06, 0x1c, 0x3e,
  0x53, 0x87, 0x49, 0x3e, 0xcc, 0x83, 0x75, 0x3d, 0x09, 0x87, 0x4b, 0x3e,
  0x10, 0x6e, 0x54, 0xbc, 0x40, 0x77, 0x1f, 0xbd, 0x2c, 0x48, 0x44, 0xbe,
  0x06, 0xa6, 0xb8, 0x3d, 0xfa, 0x90, 0x8d, 0x3d, 0x00, 0x41, 0xcb, 0xbb,
  0xca, 0x83, 0xa1, 0xbd, 0x56, 0x7b, 0xcf, 0x3d, 0xda, 0x94, 0x8e, 0x3d,
  0xe5, 0x34, 0x38, 0xbe, 0x54, 0x8a, 0x58, 0x3d, 0xbe, 0x8e, 0xbb, 0x3d,
  0x2c, 0xf3, 0xbf, 0xbd, 0x3d, 0x88, 0x21, 0xbe, 0xc3, 0x09, 0xdb, 0xbd,
  0xa2, 0x88, 0xb5, 0x3d, 0x02, 0x03, 0x81, 0x3d, 0xf0, 0x75, 0x51, 0xbe,
  0x37, 0x5a, 0xdf, 0xbd, 0x82, 0x66, 0xc7, 0x3d, 0x4a, 0x4b, 0x26, 0xbe,
  0x79, 0x4a, 0x1b, 0x3e, 0x66, 0xf7, 0x88, 0x3d, 0x2a, 0x0e, 0xf9, 0x3d,
  0x90, 0xe5, 0xdf, 0xbc, 0xa0, 0x17, 0xe1, 0xbd, 0xac, 0x9d, 0x3b, 0xbe,
  0xd0, 0x19, 0xa4, 0xbc, 0x4e, 0x0b, 0xad, 0x3d, 0x1e, 0x19, 0x82, 0x3d,
  0x38, 0x6f, 0x97, 0xbd, 0xaf, 0xb2, 0x26, 0x3e, 0xa0, 0x3f, 0xcf, 0x3c,
  0xe7, 0x4b, 0x3e, 0x3e, 0x62, 0x07, 0xb0, 0x3d, 0x1c, 0x45, 0x21, 0xbe,
  0x40, 0xf1, 0xe5, 0x3c, 0x68, 0x07, 0xa9, 0x3c, 0xf4, 0xdc, 0x5b, 0x3d,
  0xb4, 0xc0, 0x1f, 0x3d, 0x93, 0xce, 0xc0, 0xbd, 0xee, 0xf6, 0xe1, 0x3d,
  0x9e, 0x98, 0xab, 0x3d, 0x61, 0xc1, 0x4f, 0xbe, 0xda, 0xae, 0x3f, 0xbe,
  0x9c, 0xed, 0xdb, 0xbd, 0xaa, 0xb4, 0x97, 0x3d, 0xc6, 0xdd, 0xa8, 0x3d,
  0xfd, 0x94, 0x37, 0x3e, 0x1e, 0x9f, 0x16, 0xbe, 0xef, 0xfa, 0x24, 0xbe,
  0x40, 0x73, 0x54, 0x3c, 0x92, 0x85, 0xd2, 0xbd, 0x20, 0xe6, 0xa2, 0xbb,
  0x08, 0x21, 0xb4, 0xbc, 0x51, 0x78, 0x3f, 0x3e, 0x40, 0x30, 0x3a, 0xbb,
  0xe9, 0x33, 0x1a, 0x3e, 0xf8, 0x52, 0xa7, 0xbd, 0x84, 0xbc, 0x46, 0x3d,
  0xaf, 0x18, 0x2e, 0x3e, 0xac, 0x19, 0x4d, 0xbe, 0xab, 0x53, 0x40, 0xbe,
  0xf4, 0xdb, 0x0d, 0x3d, 0x59, 0xc5, 0x1c, 0xbe, 0x3d, 0x34, 0x18, 0x3e,
  0xcc, 0x52, 0x2f, 0x3d, 0xba, 0x17, 0xc1, 0x3d, 0x59, 0x5b, 0x00, 0x3e,
  0xc4, 0xa4, 0x45, 0x3d, 0x8d, 0x8c, 0xc2, 0xbd, 0x80, 0xbc, 0xa6, 0x3a,
  0x3a, 0x50, 0x2d, 0xbe, 0x54, 0x7a, 0x41, 0x3d, 0x7b, 0x87, 0x28, 0x3e,
  0x96, 0x37, 0x90, 0xbd, 0x2e, 0x91, 0x20, 0xbe, 0x34, 0x45, 0x26, 0x3d,
  0xc5, 0x2d, 0x2f, 0x3e, 0x76, 0xcd, 0x82, 0x3d, 0x60, 0x67, 0x78, 0x3c,
  0xb5, 0xee, 0x01, 0x3e, 0x00, 0xd4, 0x27, 0xbd, 0x41, 0x7a, 0x18, 0xbe,
  0xcc, 0x25, 0x76, 0x3d, 0x4f, 0xd6, 0x5b, 0xbe, 0x8d, 0x03, 0x1f, 0xbe,
  0x40, 0x72, 0xb4, 0xbb, 0x79, 0xec, 0x58, 0x3e, 0xf8, 0x94, 0xd7, 0xbc,
  0x24, 0xef, 0x0b, 0xbd, 0x40, 0xc3, 0x55, 0x3c, 0x0e, 0x05, 0x18, 0xbe,
  0x4c, 0xd4, 0x28, 0xbd, 0x40, 0x50, 0x64, 0xbc, 0x80, 0x5b, 0x1e, 0xbe,
  0xac, 0xa7, 0x75, 0xbd, 0xd2, 0x5b, 0x27, 0xbe, 0x20, 0x4b, 0x16, 0x3c,
  0xa0, 0xf5, 0x02, 0xbd, 0xc8, 0xb6, 0x8e, 0xbc, 0x00, 0xe9, 0xb7, 0xbb,
  0x06, 0x17, 0x90, 0xbd, 0x0a, 0xaf, 0xff, 0xbd, 0x3f, 0x9c, 0x0b, 0xbe,
  0x02, 0x85, 0x89, 0x3d, 0x61, 0xeb, 0x0b, 0x3e, 0x43, 0x0b, 0x02, 0x3e,
  0x95, 0xb0, 0x41, 0xbe, 0xc7, 0x7a, 0xff, 0xbd, 0x2e, 0x41, 0xa5, 0x3d,
  0x3c, 0x39, 0x80, 0xbd, 0xd3, 0xf3, 0xcc, 0xbd, 0x40, 0xa8, 0x25, 0xbe,
  0xc0, 0x5c, 0xd4, 0x3b, 0xec, 0x1d, 0x30, 0x3d, 0xa7, 0x1b, 0x59, 0x3e,
  0xb3, 0x8e, 0x0e, 0x3e, 0x15, 0xc5, 0x41, 0x3e, 0xbd, 0xc2, 0x4e, 0x3e,
  0x6a, 0xcb, 0xd3, 0xbd, 0x15, 0x2e, 0x4e, 0x3e, 0xe6, 0xd1, 0xd5, 0x3d,
  0xfc, 0x06, 0x22, 0xbd, 0x69, 0x1c, 0x37, 0x3e, 0x8a, 0xac, 0x87, 0x3d,
  0x97, 0x7e, 0x4f, 0x3e, 0xb8, 0x05, 0x18, 0xbe, 0x48, 0xec, 0xbe, 0xbd,
  0xa8, 0x2e, 0xa1, 0x3c, 0x70, 0x15, 0xae, 0xbc, 0xa0, 0x94, 0x1a, 0xbe,
  0x62, 0x5a, 0xbb, 0x3d, 0x87, 0x5e, 0x37, 0xbe, 0x35, 0x99, 0x1e, 0x3e,
  0xc0, 0x04, 0x26, 0xbe, 0x66, 0xce, 0xfc, 0x3d, 0x80, 0xa1, 0x7e, 0xbc,
  0x17, 0x64, 0x5b, 0x3e, 0x85, 0x8f, 0x33, 0x3e, 0x07, 0xf3, 0x28, 0xbe,
  0xaa, 0xca, 0xc9, 0x3d, 0xa2, 0xa0, 0xcf, 0x3d, 0xa4, 0x02, 0x38, 0x3d,
  0x78, 0x1a, 0x45, 0xbe, 0xb3, 0xf2, 0x44, 0xbe, 0x0e, 0x42, 0x83, 0x3d,
  0x70, 0x8a, 0x3f, 0xbe, 0x44, 0xe5, 0x30, 0xbe, 0x71, 0xea, 0x58, 0x3e,
  0xa8, 0x9c, 0x3b, 0xbe, 0x81, 0xca, 0x33, 0x3e, 0x77, 0x4c, 0x4f, 0x3e,
  0x9d, 0x94, 0x44, 0xbe, 0x1c, 0x09, 0x20, 0xbd, 0xea, 0x1e, 0xb2, 0xbd,
  0x30, 0x52, 0x7a, 0xbc, 0xf6, 0x54, 0xc8, 0x3d, 0x55, 0x6a, 0x4a, 0x3e,
  0xc0, 0x3c, 0x22, 0x3b, 0x76, 0xa5, 0x80, 0x3d, 0x22, 0x20, 0xcf, 0x3d,
  0xa2, 0x92, 0x8f, 0xbd, 0x4c, 0x26, 0x0f, 0xbe, 0x46, 0xb2, 0x8b, 0x3d,
  0xf1, 0xbe, 0x4a, 0x3e, 0xd6, 0xcf, 0xd9, 0x3d, 0x38, 0xe0, 0xba, 0x3c,
  0xfa, 0xa2, 0xf8, 0x3d, 0x9c, 0x82, 0x22, 0xbd, 0x9e, 0x8e, 0x2c, 0xbe,
  0xd7, 0x6f, 0x38, 0x3e, 0x88, 0x98, 0x47, 0xbd, 0x4e, 0xfd, 0xbb, 0x3d,
  0x0a, 0x75, 0xb1, 0xbd, 0xa4, 0x48, 0x1f, 0xbe, 0x5c, 0x3d, 0x08, 0xbe,
  0xdc, 0x0d, 0x92, 0xbd, 0x21, 0x59, 0x09, 0x3e, 0xea, 0x38, 0x96, 0xbd,
  0x2d, 0x46, 0x36, 0x3e, 0x91, 0x01, 0x42, 0x3e, 0xc0, 0xb9, 0xa0, 0x3b,
  0xb2, 0xb4, 0xa0, 0x3d, 0xc4, 0x7e, 0x70, 0x3d, 0x48, 0x8f, 0xdf, 0x3c,
  0xeb, 0xe9, 0x4f, 0x3e, 0x2d, 0xa5, 0xfa, 0xbd, 0x56, 0x6c, 0x8b, 0x3d,
  0x1e, 0xc0, 0x83, 0x3d, 0xfc, 0xdb, 0x94, 0xbd, 0xe0, 0x40, 0x7a, 0xbc,
  0xaf, 0x2d, 0x4a, 0xbe, 0x6f, 0xe0, 0x49, 0x3e, 0x41, 0xa7, 0x27, 0x3e,
  0x1c, 0x9f, 0x71, 0x3d, 0x77, 0xac, 0x2b, 0x3e, 0xc9, 0x4f, 0x16, 0x3e,
  0xc8, 0xdb, 0x06, 0xbd, 0x88, 0x5a, 0xcb, 0xbc, 0xcc, 0x4d, 0x2e, 0xbd,
  0x58, 0x56, 0x65, 0xbd, 0xa3, 0x7f, 0x53, 0xbe, 0x9e, 0x8e, 0xa0, 0xbd,
  0xa3, 0xbe, 0x50, 0x3e, 0x7c, 0x73, 0x0f, 0xbd, 0xc1, 0xa3, 0x34, 0x3e,
  0xf9, 0x85, 0x25, 0xbe, 0x83, 0x2d, 0x05, 0x3e, 0xcc, 0xf9, 0x36, 0xbd,
  0x14, 0x15, 0x6b, 0xbd, 0x8b, 0x6b, 0x3e, 0x3e, 0xea, 0x5d, 0xb3, 0x3d,
  0x82, 0xb5, 0xb1, 0x3d, 0x51, 0x52, 0x2e, 0x3e, 0x54, 0xef, 0xc9, 0xbd,
  0x5f, 0x0f, 0x1e, 0xbe, 0xda, 0xcc, 0xcd, 0x3d, 0xbc, 0x1b, 0x90, 0xbd,
  0x19, 0x87, 0x0c, 0x3e, 0x18, 0x58, 0xd4, 0x3c, 0x3b, 0x50, 0x33, 0xbe,
  0x12, 0x4e, 0x8d, 0x3d, 0x45, 0xe2, 0x12, 0x3e, 0x2a, 0x15, 0x82, 0x3d,
  0x96, 0xc8, 0xb4, 0xbd, 0x1e, 0x99, 0xce, 0xbd, 0x9c, 0xec, 0x54, 0xbd,
  0xec, 0x88, 0x09, 0x3d, 0x10, 0x29, 0x25, 0x3c, 0x8f, 0xc0, 0x26, 0x3e,
  0x97, 0x0f, 0xda, 0xbd, 0x53, 0x16, 0x23, 0x3e, 0x18, 0xea, 0x88, 0xbc,
  0x26, 0x9e, 0xae, 0x3d, 0x26, 0x97, 0x99, 0xbd, 0xd0, 0x22, 0x20, 0xbc,
  0xaa, 0x36, 0xbd, 0x3d, 0x90, 0xda, 0x4f, 0xbc, 0xce, 0x73, 0xad, 0x3d,
  0xa2, 0x34, 0xe7, 0x3d, 0xe7, 0xc0, 0x39, 0x3e, 0x61, 0x9d, 0x27, 0xbe,
  0xcc, 0x59, 0x70, 0x3d, 0x8f, 0x36, 0x2e, 0x3e, 0x0e, 0xb8, 0xff, 0x3d,
  0xd9, 0x8a, 0x01, 0x3e, 0xcc, 0xa9, 0x78, 0xbd, 0x48, 0xaf, 0xe8, 0x3c,
  0x19, 0x40, 0x11, 0x3e, 0x5c, 0x0a, 0x17, 0xbd, 0x3e, 0x62, 0x8f, 0x3d,
  0xe4, 0x13, 0x14, 0x3d, 0x87, 0x13, 0x19, 0xbe, 0x66, 0x90, 0xdb, 0x3d,
  0xb1, 0x32, 0x24, 0x3e, 0x80, 0xdb, 0xa5, 0x3a, 0x8d, 0xc3, 0x33, 0x3e,
  0x3a, 0xa2, 0xf0, 0x3d, 0x9e, 0xf9, 0xd6, 0x3d, 0x66, 0xf6, 0x94, 0xbd,
  0x55, 0xce, 0x2e, 0xbe, 0x82, 0xd9, 0xca, 0x3d, 0xd5, 0x2d, 0xf9, 0xbd,
  0x54, 0x20, 0x79, 0xbd, 0x68, 0xa4, 0x9a, 0xbc, 0x7c, 0xaa, 0x49, 0x3d,
  0x80, 0x70, 0x68, 0xbb, 0x7e, 0x57, 0x4c, 0xbe, 0xda, 0x93, 0x82, 0xbd,
  0xde, 0x56, 0xbb, 0x3d, 0xa6, 0x85, 0xf4, 0x3d, 0x26, 0xc5, 0x22, 0xbe,
  0x78, 0xcb, 0xf0, 0xbc, 0xc7, 0xc1, 0xdd, 0xbd, 0x7d, 0x8a, 0x21, 0x3e,
  0x8e, 0x15, 0xab, 0x3d, 0xde, 0x69, 0xa6, 0x3d, 0x94, 0x44, 0x22, 0xbd,
  0x3c, 0xb1, 0x54, 0xbe, 0xde, 0xff, 0x91, 0x3d, 0x44, 0x72, 0x2c, 0xbe,
  0xa1, 0x89, 0x04, 0xbe, 0x5a, 0x7e, 0xb1, 0xbd, 0x30, 0x02, 0x24, 0xbc,
  0x2a, 0x2e, 0x15, 0xbe, 0xaa, 0xb3, 0x0d, 0xbe, 0x48, 0x89, 0xbf, 0xbc,
  0x10, 0x56, 0x0b, 0xbc, 0xa8, 0x4e, 0x9f, 0x3c, 0xf6, 0xa5, 0x8b, 0xbd,
  0x18, 0xe8, 0x3a, 0xbe, 0x30, 0xa1, 0x8b, 0x3c, 0x81, 0x2f, 0x03, 0x3e,
  0x1a, 0x9a, 0x92, 0xbd, 0x9e, 0x32, 0xd6, 0x3d, 0xa0, 0x5c, 0xf2, 0x3b,
  0x6b, 0x55, 0x22, 0xbe, 0x1b, 0xa9, 0x3d, 0x3e, 0x98, 0xc3, 0x18, 0xbe,
  0x88, 0x11, 0x80, 0xbd, 0x47, 0xaa, 0x37, 0x3e, 0x05, 0x09, 0x0e, 0x3e,
  0xa5, 0x3f, 0x49, 0x3e, 0x03, 0xd3, 0x09, 0xbe, 0xde, 0xb2, 0x98, 0x3d,
  0x84, 0xb5, 0x32, 0x3d, 0x92, 0x8a, 0xb6, 0x3d, 0x5c, 0xaa, 0x1d, 0xbd,
  0xfa, 0xc6, 0xcd, 0x3d, 0xc0, 0x13, 0xa7, 0xbb, 0x7a, 0x68, 0x8a, 0x3d,
  0xb9, 0x12, 0x0b, 0xbe, 0xfb, 0x5f, 0x55, 0x3e, 0x3a, 0x38, 0x87, 0xbd,
  0x36, 0x33, 0xa2, 0x3d, 0x41, 0x8c, 0x0c, 0x3e, 0x1e, 0x3c, 0xa2, 0x3d,
  0xe3, 0x93, 0x55, 0x3e, 0xe4, 0xc3, 0x59, 0x3d, 0xf4, 0x86, 0x19, 0x3d,
  0x9b, 0x1d, 0x16, 0xbe, 0x97, 0x98, 0x3e, 0x3e, 0xee, 0xdb, 0xdb, 0x3d,
  0x32, 0x52, 0xe7, 0xbd, 0x08, 0x90, 0x2a, 0xbd, 0xd6, 0x30, 0x94, 0xbd,
  0xfd, 0xa8, 0x1d, 0x3e, 0x8e, 0xc6, 0xf5, 0x3d, 0xd2, 0xb5, 0xa8, 0x3d,
  0x10, 0xd2, 0x3c, 0x3c, 0xb0, 0x91, 0x6e, 0xbd, 0x49, 0x54, 0x37, 0x3e,
  0x20, 0xd7, 0x91, 0xbc, 0x5b, 0xfc, 0x0f, 0x3e, 0x1c, 0x0a, 0x3b, 0xbe,
  0x90, 0xeb, 0xbe, 0x3c, 0x64, 0xb8, 0x4c, 0xbd, 0x3c, 0x56, 0x6a, 0x3d,
  0xa6, 0x3c, 0x96, 0xbd, 0xe7, 0x33, 0x01, 0x3e, 0xd4, 0x94, 0x04, 0xbd,
  0xca, 0x2f, 0x41, 0xbe, 0xde, 0xc5, 0xfa, 0xbd, 0xc0, 0xf3, 0xae, 0xbd,
  0x80, 0x77, 0x8d, 0xbd, 0x48, 0x0f, 0x02, 0xbe, 0x80, 0x9b, 0x88, 0x3c,
  0x93, 0x6f, 0x0d, 0x3e, 0x27, 0xaa, 0x40, 0x3e, 0x0c, 0x18, 0x53, 0x3d,
  0x1f, 0x44, 0x07, 0x3e, 0x24, 0x17, 0x1c, 0xbe, 0xdf, 0xad, 0x4d, 0x3e,
  0x4b, 0xa2, 0x32, 0x3e, 0x7f, 0xeb, 0x43, 0x3e, 0xde, 0x4f, 0xeb, 0x3d,
  0x77, 0x8f, 0x29, 0xbe, 0x27, 0xc2, 0x02, 0x3e, 0x8d, 0x0c, 0x0d, 0x3e,
  0x6f, 0xd9, 0x46, 0xbe, 0xda, 0x30, 0xfb, 0x3d, 0xf9, 0xba, 0x4b, 0xbe,
  0x80, 0xf4, 0x6a, 0xbd, 0x03, 0xeb, 0x20, 0x3e, 0x4f, 0x62, 0x04, 0x3e,
  0xb4, 0xc5, 0x8f, 0xbd, 0x0f, 0x59, 0x05, 0x3e, 0xa6, 0x01, 0x4a, 0xbe,
  0x58, 0xb1, 0x92, 0x3c, 0x67, 0x0c, 0x31, 0x3e, 0x1e, 0x4a, 0xa7, 0xbd,
  0x60, 0xb3, 0xb8, 0x3c, 0x32, 0xb3, 0x20, 0xbe, 0x18, 0xec, 0x58, 0xbe,
  0x5d, 0x5d, 0xeb, 0xbd, 0x8f, 0x67, 0xf6, 0xbd, 0xe8, 0xc9, 0xae, 0x3c,
  0x68, 0x1a, 0x52, 0xbd, 0x9e, 0xaa, 0xfc, 0x3d, 0xc0, 0xc3, 0x2e, 0xbb,
  0xc0, 0xab, 0x10, 0xbe, 0x14, 0xae, 0x59, 0x3d, 0x43, 0x42, 0x5c, 0x3e,
  0xdc, 0x2e, 0xd2, 0xbd, 0x20, 0x35, 0x8e, 0xbb, 0x89, 0xc6, 0x2d, 0x3e,
  0xeb, 0x50, 0x09, 0xbe, 0xae, 0x64, 0x99, 0xbd, 0xd2, 0x16, 0x34, 0xbe,
  0x33, 0xa3, 0x2d, 0x3e, 0xec, 0x4f, 0x77, 0x3d, 0x50, 0x36, 0x65, 0xbd,
  0x55, 0xf3, 0x5a, 0x3e, 0xc0, 0x1c, 0x48, 0xbd, 0x00, 0xf0, 0xbe, 0x3a,
  0x6a, 0x18, 0xcc, 0x3d, 0xe8, 0x01, 0x35, 0xbe, 0xaf, 0x90, 0xd0, 0xbd,
  0x54, 0xed, 0x9b, 0xbd, 0x33, 0xe4, 0xc0, 0xbd, 0x66, 0xfc, 0x99, 0x3d,
  0xc4, 0xad, 0x15, 0x3d, 0xe1, 0x71, 0x4c, 0xbe, 0xc9, 0x49, 0x38, 0x3e,
  0xff, 0xd4, 0x1d, 0xbe, 0xc0, 0x32, 0xdd, 0x3b, 0xbb, 0x07, 0xef, 0xbd,
  0xf2, 0x82, 0xe2, 0x3d, 0xa9, 0x76, 0x4a, 0xbe, 0xb8, 0xc2, 0xda, 0xbc,
  0xa7, 0xaf, 0x1e, 0x3e, 0x98, 0xaf, 0xf0, 0xbd, 0x64, 0x9b, 0x35, 0x3d,
  0xa4, 0x50, 0x16, 0x3d, 0x66, 0xbd, 0x9f, 0x3d, 0xb1, 0xa0, 0x1c, 0xbe,
  0x7a, 0xa0, 0xef, 0x3d, 0x40, 0xda, 0x07, 0xbc, 0x66, 0x3b, 0xbd, 0x3d,
  0x52, 0x11, 0xc4, 0x3d, 0x33, 0x6a, 0x3b, 0x3e, 0xec, 0x49, 0x3e, 0xbd,
  0x9b, 0x1c, 0x4a, 0x3e, 0x6f, 0x27, 0x21, 0xbe, 0x80, 0x33, 0x5f, 0x3c,
  0xb0, 0xd1, 0xd5, 0x3c, 0x88, 0xf9, 0x50, 0xbd, 0xc4, 0x40, 0x74, 0xbd,
  0x53, 0x1c, 0x02, 0xbe, 0xe0, 0x4d, 0xaa, 0x3c, 0xb5, 0x1d, 0x48, 0x3e,
  0xd3, 0x18, 0x2f, 0xbe, 0xfc, 0x1f, 0x64, 0xbd, 0x3f, 0xc4, 0x27, 0x3e,
  0xa5, 0xc6, 0x30, 0x3e, 0x18, 0xf0, 0x2a, 0xbd, 0x9e, 0x8c, 0xbd, 0x3d,
  0xc0, 0x7f, 0xf3, 0xbc, 0xde, 0x77, 0xa5, 0x3d, 0x07, 0x5b, 0x19, 0xbe,
  0xb7, 0xbf, 0x54, 0xbe, 0xd2, 0x4e, 0xa5, 0x3d, 0xcc, 0x91, 0x7f, 0x3d,
  0x71, 0x2d, 0x00, 0x3e, 0x74, 0x43, 0x16, 0x3d, 0xff, 0xf3, 0x46, 0xbe,
  0x40, 0x15, 0xb8, 0x3b, 0x0b, 0x8c, 0x38, 0x3e, 0x54, 0xd2, 0x36, 0x3d,
  0x76, 0x96, 0xdf, 0x3d, 0x06, 0xd5, 0x9b, 0x3d, 0xa7, 0xc5, 0x44, 0x3e,
  0x4c, 0x48, 0x69, 0xbd, 0xd4, 0x34, 0x09, 0xbe, 0xb2, 0x55, 0xae, 0xbd,
  0xd8, 0x6a, 0x8b, 0xbc, 0x58, 0x8f, 0xed, 0xbc, 0x34, 0xbb, 0x09, 0x3d,
  0x00, 0x69, 0x41, 0xbe, 0x8c, 0x11, 0x36, 0x3d, 0xe2, 0xc1, 0x82, 0x3d,
  0x1e, 0x00, 0xcf, 0x3d, 0xf8, 0x5c, 0xa1, 0xbc, 0x00, 0x2d, 0x6a, 0x3b,
  0x2c, 0xf7, 0xb3, 0xbd, 0x57, 0x86, 0x5c, 0xbe, 0x5f, 0xaa, 0x37, 0x3e,
  0x92, 0x51, 0xac, 0x3d, 0xc1, 0x99, 0x51, 0x3e, 0x51, 0xb5, 0x41, 0xbe,
  0xc1, 0xd3, 0xfd, 0xbd, 0xc0, 0x00, 0x56, 0xbb, 0xb9, 0x43, 0x37, 0x3e,
  0x9e, 0x0f, 0x95, 0x3d, 0x81, 0x9a, 0x4f, 0xbe, 0x61, 0x80, 0xf2, 0xbd,
  0x4c, 0x61, 0xb3, 0xbd, 0x25, 0x3e, 0x1d, 0x3e, 0x50, 0x9c, 0x66, 0xbc,
  0x78, 0x09, 0xa4, 0xbc, 0x99, 0x33, 0xd2, 0xbd, 0x55, 0x93, 0x3d, 0x3e,
  0xde, 0x61, 0x98, 0x3d, 0xa3, 0x0b, 0x21, 0x3e, 0xed, 0x38, 0xd9, 0xbd,
  0xb4, 0x29, 0x31, 0xbd, 0x08, 0x7b, 0x4d, 0xbd, 0x72, 0x2f, 0x8b, 0x3d,
  0xf5, 0x29, 0x37, 0xbe, 0xb0, 0xa2, 0x47, 0xbe, 0xc9, 0xb3, 0x22, 0x3e,
  0x9c, 0xd0, 0x08, 0xbd, 0x50, 0x8f, 0xf6, 0xbd, 0xbc, 0xd7, 0x60, 0x3d,
  0x72, 0x5b, 0xa9, 0x3d, 0x58, 0xb9, 0xb5, 0xbd, 0x5f, 0x0b, 0x4e, 0x3e,
  0xca, 0xbe, 0xfc, 0x3d, 0xf8, 0xa9, 0xf9, 0x3c, 0xcb, 0x41, 0x02, 0x3e,
  0x3c, 0x73, 0x0d, 0xbd, 0x17, 0x02, 0xe0, 0xbd, 0xbc, 0x62, 0xa5, 0xbd,
  0x40, 0x57, 0x61, 0x3c, 0x11, 0x12, 0x02, 0x3e, 0x8e, 0xc6, 0x0a, 0xbe,
  0xad, 0xc9, 0x57, 0xbe, 0x42, 0xa8, 0x2c, 0xbe, 0x40, 0xd0, 0x2a, 0xbc,
  0x8c, 0x9c, 0xb8, 0xbd, 0xe4, 0xd2, 0x45, 0xbe, 0x22, 0xf2, 0xad, 0x3d,
  0x42, 0x52, 0xa4, 0x3d, 0x3c, 0x8b, 0x57, 0x3d, 0x04, 0x99, 0x0e, 0xbe,
  0xe8, 0xb3, 0x0c, 0xbe, 0x0e, 0x75, 0xaf, 0xbd, 0xd0, 0x95, 0x2e, 0xbc,
  0xeb, 0xb0, 0x1c, 0x3e, 0x36, 0x99, 0x31, 0xbe, 0x94, 0xed, 0x0f, 0xbe,
  0x00, 0x9d, 0x13, 0x3c, 0xc0, 0xf8, 0x6d, 0xbc, 0x01, 0x15, 0x00, 0x3e,
  0x26, 0xc0, 0xce, 0x3d, 0xc3, 0xfd, 0x1e, 0x3e, 0x5e, 0x1c, 0xed, 0x3d,
  0xff, 0x79, 0x0b, 0x3e, 0xec, 0x6d, 0xe2, 0xbd, 0xf0, 0x1f, 0x32, 0x3c,
  0xa2, 0x78, 0xfd, 0x3d, 0xc4, 0x92, 0x36, 0xbe, 0x38, 0x79, 0xe7, 0xbd,
  0x77, 0x93, 0x4a, 0x3e, 0x6e, 0x66, 0xf9, 0x3d, 0x12, 0xa0, 0x2e, 0xbe,
  0x7e, 0x28, 0x95, 0xbd, 0xc2, 0xe2, 0xaa, 0xbd, 0xa7, 0x59, 0x5d, 0x3e,
  0xee, 0xfa, 0xfe, 0x3d, 0x35, 0xd4, 0x17, 0x3e, 0xf5, 0x32, 0x25, 0x3e,
  0x9b, 0x77, 0x01, 0x3e, 0xa9, 0x3d, 0x49, 0x3e, 0x32, 0x49, 0xe9, 0x3d,
  0x42, 0x21, 0x2a, 0xbe, 0x55, 0xc0, 0x12, 0x3e, 0xfb, 0x08, 0x01, 0x3e,
  0x17, 0x78, 0x3f, 0x3e, 0x3c, 0xec, 0x5a, 0xbd, 0x9c, 0x3b, 0x11, 0xbd,
  0x38, 0x62, 0x05, 0xbe, 0xf9, 0xd5, 0x3a, 0xbe, 0x79, 0x06, 0x55, 0x3e,
  0xaf, 0xfb, 0x1d, 0xbe, 0x59, 0x1d, 0x01, 0xbe, 0xca, 0x74, 0xd0, 0x3d,
  0xd7, 0x98, 0x29, 0x3e, 0xfa, 0x6d, 0x22, 0xbe, 0xce, 0x4c, 0x16, 0xbe,
  0x80, 0x87, 0xb7, 0xba, 0x2a, 0xec, 0xcc, 0xbd, 0x4e, 0x07, 0xd8, 0x3d,
  0x19, 0x8c, 0x29, 0xbe, 0xf8, 0x60, 0x16, 0xbe, 0x05, 0xdd, 0x4e, 0xbe,
  0x6c, 0x22, 0x50, 0xbd, 0x37, 0x33, 0x5c, 0xbe, 0xf1, 0x76, 0x06, 0x3e,
  0xef, 0x43, 0x53, 0x3e, 0x0f, 0x1c, 0x34, 0xbe, 0x90, 0xff, 0x01, 0xbd,
  0x6f, 0xed, 0x4b, 0x3e, 0x73, 0x2f, 0xd6, 0xbd, 0x9a, 0x04, 0xb3, 0xbd,
  0x1a, 0x41, 0xa7, 0x3d, 0x66, 0xc2, 0x55, 0xbe, 0xbe, 0xd3, 0x04, 0xbe,
  0x98, 0x64, 0xee, 0x3c, 0x4c, 0xa4, 0x51, 0x3d, 0x75, 0x00, 0x57, 0x3e,
  0xb0, 0x65, 0xe3, 0x3c, 0xd8, 0x72, 0xfd, 0x3c, 0xa3, 0x8f, 0x23, 0x3e,
  0x1c, 0x10, 0x3e, 0x3d, 0x3a, 0x0f, 0xaa, 0x3d, 0xe6, 0x84, 0x86, 0x3d,
  0x90, 0x38, 0xc0, 0xbd, 0xf0, 0x97, 0xfc, 0x3c, 0xeb, 0xf8, 0x46, 0x3e,
  0x82, 0x17, 0x43, 0xbe, 0xa0, 0xbf, 0xcd, 0x3b, 0x9c, 0x9a, 0x4b, 0xbd,
  0xee, 0x04, 0xd7, 0x3d, 0xe5, 0xfa, 0xcb, 0xbd, 0xb2, 0x7d, 0xb5, 0xbd,
  0x7e, 0xab, 0xa0, 0x3d, 0x48, 0x97, 0xd3, 0x3c, 0x5a, 0x42, 0xb0, 0x3d,
  0xb1, 0xc1, 0x11, 0x3e, 0x40, 0xf0, 0xda, 0x3b, 0x68, 0x69, 0x8f, 0x3c,
  0x8e, 0xe9, 0xd1, 0x3d, 0xa1, 0x1b, 0x3a, 0xbe, 0xb2, 0xec, 0x95, 0x3d,
  0x12, 0x87, 0x01, 0xbe, 0x2e, 0xf7, 0xcf, 0xbd, 0x73, 0xc1, 0xbd, 0xbd,
  0x80, 0x8f, 0xb6, 0xbb, 0x85, 0x1c, 0x15, 0x3e, 0x26, 0x25, 0x86, 0x3d,
  0x2e, 0xcf, 0x92, 0x3d, 0x7f, 0x1f, 0xe8, 0xbd, 0x98, 0x38, 0x4c, 0xbd,
  0xf2, 0xe5, 0x8d, 0x3d, 0x17, 0x28, 0x06, 0xbe, 0xdc, 0xf1, 0x20, 0xbe,
  0x7e, 0x35, 0xbb, 0x3d, 0xa0, 0x04, 0x98, 0x3b, 0x61, 0xac, 0x52, 0x3e,
  0x92, 0x3c, 0x92, 0x3d, 0xc8, 0xd4, 0x08, 0xbe, 0x88, 0xcb, 0x43, 0xbe,
  0x26, 0xe9, 0x09, 0xbe, 0x16, 0xbd, 0x18, 0xbe, 0xac, 0x29, 0xdb, 0xbd,
  0x94, 0x46, 0x5e, 0xbd, 0x16, 0xe0, 0xe4, 0x3d, 0x80, 0xdc, 0xa1, 0xbc,
  0x6b, 0x17, 0x01, 0x3e, 0xad, 0xc4, 0x05, 0x3e, 0x34, 0x75, 0x43, 0xbe,
  0x28, 0xa1, 0x8d, 0xbd, 0x7e, 0x8b, 0xa5, 0xbd, 0x3e, 0x32, 0x84, 0xbd,
  0x04, 0x08, 0x0b, 0xbd, 0x21, 0xae, 0x5b, 0x3e, 0x81, 0x46, 0x1c, 0x3e,
  0xb4, 0x13, 0x4a, 0xbd, 0xb8, 0x63, 0xdc, 0x3c, 0x14, 0x10, 0x0a, 0xbe,
  0x77, 0xef, 0x00, 0x3e, 0xcf, 0x6b, 0x30, 0x3e, 0x8e, 0x58, 0xd4, 0x3d,
  0x6a, 0x39, 0x9f, 0x3d, 0x66, 0x9d, 0xe8, 0x3d, 0x60, 0xdb, 0x75, 0xbd,
  0xa6, 0x68, 0x93, 0x3d, 0x41, 0xe5, 0x5a, 0x3e, 0xc9, 0xae, 0x32, 0x3e,
  0xe0, 0xac, 0x1c, 0xbc, 0x61, 0x8c, 0x2b, 0x3e, 0x00, 0x79, 0x5d, 0x3a,
  0x08, 0x26, 0x10, 0xbe, 0x58, 0xf0, 0xba, 0xbd, 0xee, 0xef, 0x9b, 0x3d,
  0x70, 0x22, 0x18, 0xbc, 0x06, 0x30, 0xb8, 0x3d, 0x00, 0xf8, 0xcc, 0x3b,
  0x00, 0x75, 0x6b, 0x3b, 0xe4, 0x46, 0x69, 0x3d, 0xfc, 0x76, 0x7e, 0x3d,
  0x55, 0x3c, 0xbc, 0xbd, 0xea, 0x95, 0xc5, 0x3d, 0x7c, 0x4c, 0x2b, 0x3d,
  0xfa, 0x6c, 0x58, 0xbe, 0x40, 0xf5, 0x92, 0xbd, 0xc8, 0x80, 0xcd, 0xbc,
  0x21, 0x9c, 0x07, 0xbe, 0xf8, 0x89, 0xb0, 0xbd, 0x07, 0x6d, 0x11, 0x3e,
  0x0f, 0x72, 0x42, 0x3e, 0xf5, 0x79, 0x2f, 0x3e, 0x2d, 0xbd, 0x40, 0x3e,
  0xac, 0x4d, 0x13, 0x3d, 0x16, 0x63, 0x22, 0xbe, 0xe8, 0x5f, 0xf2, 0xbd,
  0x6d, 0xc1, 0x39, 0x3e, 0xdb, 0x6e, 0x5a, 0x3e, 0xba, 0xd1, 0xae, 0x3d,
  0xa0, 0xd0, 0xee, 0xbc, 0x03, 0x7a, 0x1b, 0x3e, 0x35, 0x6a, 0xc2, 0xbd,
  0xa7, 0xe0, 0xfe, 0xbd, 0x82, 0x63, 0x4c, 0xbe, 0x44, 0xc4, 0x56, 0xbd,
  0xa0, 0xab, 0xca, 0xbb, 0x9e, 0x25, 0x9c, 0x3d, 0x10, 0x78, 0x56, 0xbd,
  0x20, 0x38, 0x09, 0xbc, 0x52, 0x91, 0xe1, 0x3d, 0x5a, 0x89, 0x9b, 0x3d,
  0x5f, 0x51, 0x43, 0x3e, 0x24, 0x2e, 0x0c, 0xbe, 0xa0, 0x65, 0x23, 0xbd,
  0xe9, 0x77, 0x15, 0xbe, 0x74, 0x8a, 0x7e, 0x3d, 0xde, 0x3b, 0x9c, 0x3d,
  0x00, 0xa7, 0x6a, 0x3b, 0x4a, 0xf9, 0xc2, 0x3d, 0x83, 0xe3, 0x0a, 0xbe,
  0xf6, 0xbe, 0x2e, 0xbe, 0x04, 0x30, 0x0b, 0x3d, 0xf0, 0x3b, 0x76, 0xbd,
  0x6d, 0xd5, 0x1f, 0xbe, 0xd5, 0x89, 0x54, 0x3e, 0x03, 0x35, 0x54, 0x3e,
  0x12, 0x81, 0x50, 0xbe, 0x72, 0x79, 0xab, 0x3d, 0x58, 0x97, 0x90, 0x3c,
  0x79, 0x56, 0x4e, 0x3e, 0x65, 0xe9, 0xfe, 0xbd, 0xd3, 0xad, 0x25, 0x3e,
  0xe4, 0x1e, 0x7b, 0x3d, 0x95, 0x80, 0x21, 0x3e, 0xed, 0x8e, 0x49, 0x3e,
  0xba, 0x81, 0xb8, 0xbd, 0xc0, 0x1a, 0x05, 0xbd, 0x58, 0x98, 0xbb, 0x3c,
  0xb2, 0x3c, 0xcb, 0xbd, 0xa5, 0x41, 0xfc, 0xbd, 0xa4, 0x14, 0x9d, 0xbd,
  0xaa, 0xc5, 0x8a, 0x3d, 0x74, 0xed, 0x5f, 0x3d, 0xe8, 0x51, 0x33, 0xbe,
  0x10, 0x5d, 0x03, 0xbd, 0x39, 0xd4, 0x22, 0xbe, 0xd2, 0xb3, 0xe6, 0xbd,
  0x69, 0x3e, 0x02, 0xbe, 0x8a, 0xba, 0xb1, 0xbd, 0xb8, 0xe6, 0x86, 0x3c,
  0x03, 0x9b, 0x41, 0xbe, 0xbd, 0x29, 0x5b, 0x3e, 0xa6, 0xda, 0xa2, 0xbd,
  0x70, 0x91, 0x72, 0xbd, 0x3e, 0x31, 0x2e, 0xbe, 0xf2, 0x0a, 0x84, 0x3d,
  0xa0, 0xa5, 0xed, 0x3c, 0x67, 0xa0, 0x04, 0x3e, 0x3f, 0xfa, 0xd8, 0xbd,
  0xbe, 0x37, 0xde, 0x3d, 0x40, 0x41, 0xe4, 0xbd, 0x32, 0xee, 0xa8, 0xbd,
  0x29, 0xf0, 0x55, 0x3e, 0xb5, 0x80, 0x49, 0xbe, 0x82, 0x09, 0xcf, 0x3d,
  0xb0, 0x0d, 0xaf, 0xbc, 0xf0, 0xd1, 0x00, 0xbe, 0x90, 0x55, 0x80, 0xbd,
  0x6c, 0x9f, 0x48, 0x3d, 0xd0, 0xfc, 0x82, 0x3c, 0xfc, 0x17, 0x9c, 0xbd,
  0xae, 0x91, 0xfc, 0x3d, 0x9c, 0xec, 0x0b, 0x3d, 0xb0, 0x87, 0xf2, 0xbd,
  0x5a, 0x2c, 0x90, 0xbd, 0x24, 0x3b, 0x23, 0x3d, 0xca, 0xf9, 0xaa, 0x3d,
  0x10, 0xed, 0x42, 0xbc, 0xf7, 0x8e, 0x21, 0x3e, 0x3f, 0x81, 0x34, 0x3e,
  0x92, 0x7c, 0xc7, 0x3d, 0x74, 0x33, 0x15, 0xbd, 0x79, 0x55, 0x32, 0x3e,
  0x20, 0x6b, 0x77, 0xbc, 0x0d, 0x21, 0x1a, 0xbe, 0xb6, 0x1c, 0xa0, 0xbd,
  0xca, 0xa9, 0xc5, 0x3d, 0xc9, 0x8f, 0x30, 0x3e, 0x67, 0x4d, 0x0c, 0xbe,
  0xf4, 0x40, 0xf1, 0xbd, 0xb9, 0x29, 0x1c, 0x3e, 0x10, 0x9c, 0x4b, 0xbd,
  0x90, 0x9a, 0x1b, 0xbc, 0xaf, 0xfa, 0x34, 0x3e, 0x62, 0xca, 0x99, 0xbd,
  0x32, 0x45, 0x83, 0xbd, 0x00, 0x97, 0x04, 0x3c, 0xaf, 0xaa, 0x2f, 0xbe,
  0xa3, 0x3f, 0x44, 0x3e, 0xde, 0xf3, 0xa0, 0xbd, 0x60, 0xc9, 0x82, 0x3b,
  0xfc, 0xc5, 0x01, 0xbd, 0xaf, 0x12, 0xc9, 0xbd, 0x93, 0x5e, 0x3d, 0x3e,
  0xf3, 0x6a, 0xce, 0xbd, 0x0b, 0x02, 0x42, 0xbe, 0x48, 0x43, 0x30, 0xbd,
  0x5b, 0x2e, 0x35, 0x3e, 0xf1, 0xb3, 0x32, 0xbe, 0x90, 0x74, 0x9a, 0xbc,
  0xaf, 0x21, 0x4b, 0xbe, 0x54, 0x7e, 0x3f, 0x3d, 0x20, 0xea, 0xf8, 0x3b,
  0x16, 0xcf, 0xc4, 0x3d, 0xd3, 0x8e, 0x47, 0x3e, 0x0c, 0xb2, 0x86, 0xbd,
  0x39, 0xdf, 0x0d, 0x3e, 0xdc, 0xff, 0x33, 0xbd, 0x7a, 0x2b, 0xe2, 0x3d,
  0x33, 0xd4, 0x3d, 0x3e, 0x4a, 0x2c, 0xa4, 0x3d, 0x5c, 0xc6, 0x1b, 0xbd,
  0x31, 0xb0, 0xf3, 0xbd, 0x16, 0x07, 0xd1, 0x3d, 0x24, 0xf0, 0x51, 0xbe,
  0x20, 0xe5, 0x37, 0xbc, 0xf7, 0x25, 0x44, 0xbe, 0x80, 0xce, 0xa5, 0xbd,
  0x5e, 0x85, 0x19, 0xbe, 0x88, 0x88, 0xc0, 0xbc, 0xfc, 0x04, 0x1a, 0xbe,
  0x49, 0x83, 0x3d, 0x3e, 0x87, 0x8d, 0x01, 0x3e, 0xa0, 0xf5, 0xe7, 0x3c,
  0x96, 0x88, 0x99, 0xbd, 0x00, 0x5b, 0x29, 0x3b, 0xbc, 0x03, 0x27, 0x3d,
  0x5b, 0x1f, 0x00, 0x3e, 0xa7, 0x2f, 0x1a, 0x3e, 0xa0, 0xaf, 0x46, 0x3c,
  0x54, 0x2f, 0xb7, 0xbd, 0xbc, 0xd7, 0x55, 0x3d, 0xa5, 0xf6, 0x52, 0x3e,
  0x40, 0x45, 0x1f, 0x3b, 0x50, 0x72, 0xfd, 0xbc, 0xe0, 0x98, 0x00, 0xbc,
  0x86, 0xc2, 0xe9, 0x3d, 0x02, 0x5d, 0x02, 0xbe, 0x5a, 0xca, 0x11, 0xbe,
  0x04, 0x9d, 0x6f, 0x3d, 0xe2, 0x48, 0x96, 0x3d, 0x6b, 0x81, 0x5c, 0x3e,
  0x70, 0xc8, 0xab, 0xbc, 0x4c, 0xb8, 0x08, 0xbe, 0xb7, 0xa0, 0x4c, 0x3e,
  0x28, 0xed, 0xb8, 0x3c, 0xdc, 0x14, 0x5c, 0x3d, 0x1a, 0x9b, 0x9f, 0xbd,
  0xf8, 0x04, 0xd0, 0xbc, 0xdb, 0x5d, 0x19, 0xbe, 0x10, 0x9a, 0x06, 0x3c,
  0x8a, 0x4e, 0xdb, 0x3d, 0x92, 0x8f, 0xa2, 0x3d, 0x33, 0xbe, 0x2b, 0x3e,
  0xa0, 0xb1, 0x1f, 0xbc, 0x3a, 0x8e, 0x15, 0xbe, 0x1c, 0xab, 0x59, 0xbd,
  0x85, 0x59, 0x22, 0x3e, 0x08, 0x76, 0x07, 0xbd, 0x21, 0x7b, 0xd8, 0xbd,
  0x16, 0xd9, 0xe5, 0x3d, 0x1a, 0xbd, 0xf0, 0x3d, 0x00, 0x25, 0x2c, 0xbe,
  0xea, 0x00, 0xeb, 0x3d, 0xa8, 0x9e, 0xb1, 0xbc, 0x40, 0x50, 0x34, 0x3c,
  0x7f, 0x60, 0x55, 0xbe, 0x95, 0x8b, 0x50, 0x3e, 0x0e, 0x57, 0xce, 0xbd,
  0xcc, 0x7e, 0x41, 0x3d, 0x44, 0xbf, 0x1b, 0xbd, 0x47, 0xbd, 0x37, 0x3e,
  0x60, 0x75, 0x61, 0xbc, 0xf2, 0x62, 0x33, 0xbe, 0x90, 0x6f, 0xb9, 0xbd,
  0x54, 0x56, 0xa7, 0xbd, 0x60, 0x97, 0x5d, 0xbd, 0x0d, 0x3e, 0xe8, 0xbd,
  0x70, 0xdb, 0x6c, 0x3c, 0xbd, 0xcf, 0x3b, 0x3e, 0xbc, 0xac, 0x97, 0xbd,
  0x5e, 0x4a, 0x3d, 0xbe, 0x88, 0xe7, 0xf7, 0xbd, 0x2e, 0x66, 0xd1, 0x3d,
  0x3a, 0xff, 0x39, 0xbe, 0xb8, 0x89, 0xf3, 0xbc, 0x06, 0x86, 0xb2, 0x3d,
  0x45, 0xaf, 0x37, 0x3e, 0xa8, 0xb1, 0x42, 0xbd, 0x3f, 0x2c, 0x47, 0x3e,
  0xb2, 0x39, 0xf2, 0x3d, 0x92, 0x6d, 0xe2, 0x3d, 0x10, 0xfc, 0x82, 0xbc,
  0x97, 0x65, 0x5d, 0x3e, 0x3d, 0x39, 0xd4, 0xbd, 0x00, 0x28, 0xee, 0xba,
  0xbc, 0xde, 0x61, 0x3d, 0xd4, 0x18, 0x46, 0xbd, 0x32, 0x04, 0xc0, 0x3d,
  0x0c, 0x99, 0x5d, 0xbd, 0xa6, 0x86, 0x08, 0xbe, 0x27, 0x82, 0x5b, 0x3e,
  0x68, 0x68, 0x47, 0xbe, 0x70, 0xc2, 0xfe, 0x3c, 0xa9, 0x4a, 0x12, 0x3e,
  0x60, 0xc0, 0xa3, 0xbb, 0xc8, 0xad, 0x86, 0x3c, 0x31, 0x9b, 0x10, 0x3e,
  0x83, 0xa2, 0x51, 0xbe, 0x81, 0xe9, 0x14, 0xbe, 0xe4, 0xf3, 0x55, 0xbd,
  0xb4, 0xad, 0x2e, 0xbd, 0x50, 0x9e, 0xd2, 0x3c, 0xdc, 0xcd, 0x26, 0x3d,
  0xce, 0x1e, 0xc3, 0x3d, 0x1f, 0x3d, 0x38, 0x3e, 0xd8, 0x86, 0x1a, 0xbd,
  0xb6, 0x88, 0x4a, 0xbe, 0xd8, 0xfa, 0xf3, 0xbc, 0xfa, 0x32, 0xd5, 0xbd,
  0x70, 0xb4, 0x69, 0xbd, 0xbd, 0xc1, 0x3c, 0x3e, 0x39, 0x78, 0x0e, 0x3e,
  0xdc, 0xee, 0x4a, 0x3d, 0x00, 0xe8, 0xaf, 0xb8, 0x80, 0x75, 0xaa, 0xba,
  0xff, 0x2d, 0x0f, 0xbe, 0x74, 0xef, 0x24, 0x3d, 0x70, 0x04, 0xd4, 0xbd,
  0x1b, 0x1b, 0x2b, 0x3e, 0x78, 0xb3, 0x47, 0xbe, 0x9a, 0x99, 0xf6, 0x3d,
  0xba, 0x79, 0xce, 0x3d, 0xa1, 0x05, 0x21, 0x3e, 0xf8, 0xba, 0x17, 0xbd,
  0x4c, 0x3b, 0x57, 0xbd, 0x98, 0xdc, 0x21, 0xbe, 0x16, 0xac, 0xd2, 0x3d,
  0x79, 0x0d, 0x06, 0x3e, 0x09, 0x44, 0x07, 0x3e, 0x80, 0xab, 0xc6, 0x3b,
  0x93, 0x5c, 0x34, 0x3e, 0x2e, 0x0a, 0xa5, 0x3d, 0xe4, 0x77, 0x30, 0x3d,
  0x8e, 0xd4, 0x0e, 0xbe, 0x91, 0x32, 0x42, 0x3e, 0xf8, 0xae, 0xba, 0xbc,
  0x7a, 0x04, 0xab, 0x3d, 0x60, 0x45, 0x2d, 0x3c, 0x24, 0x51, 0x6d, 0x3d,
  0x19, 0x4e, 0x4c, 0x3e, 0x23, 0x97, 0x3b, 0xbe, 0xd4, 0x24, 0xd1, 0xbd,
  0xcd, 0xff, 0xc7, 0xbd, 0x80, 0x89, 0xcb, 0x3c, 0xe4, 0x7b, 0x00, 0xbe,
  0x39, 0xc7, 0x51, 0x3e, 0x7e, 0x6b, 0xd1, 0x3d, 0x10, 0x73, 0x1a, 0xbc,
  0x51, 0x92, 0x04, 0xbe, 0x5c, 0xd4, 0x2f, 0xbe, 0x00, 0x56, 0xce, 0xbd,
  0x76, 0x0b, 0x0c, 0xbe, 0x64, 0x54, 0x70, 0x3d, 0xd4, 0xb9, 0x7c, 0x3d,
  0x1c, 0x60, 0x75, 0x3d, 0x40, 0x47, 0x0b, 0x3b, 0x60, 0x60, 0x98, 0x3b,
  0xf9, 0xa3, 0x49, 0xbe, 0x58, 0x00, 0x80, 0xbd, 0xe1, 0x0c, 0x41, 0x3e,
  0x8e, 0x77, 0xa7, 0x3d, 0xac, 0xe5, 0x16, 0x3d, 0xf6, 0x0e, 0xcd, 0x3d,
  0x3c, 0xa8, 0xb5, 0xbd, 0x46, 0x12, 0x0d, 0xbe, 0xe0, 0xcc, 0xb2, 0xbd,
  0x18, 0xa4, 0x2f, 0xbe, 0x06, 0xf8, 0xae, 0xbd, 0xfa, 0xb0, 0x81, 0xbd,
  0xea, 0xc4, 0x3d, 0xbe, 0x34, 0xf8, 0x69, 0xbd, 0x78, 0x2f, 0xc2, 0xbc,
  0xd0, 0x75, 0xcc, 0x3c, 0xba, 0xbf, 0xf0, 0x3d, 0x9d, 0x80, 0x1d, 0x3e,
  0xae, 0x48, 0xb2, 0x3d, 0x3b, 0x97, 0x4a, 0xbe, 0xdc, 0xad, 0x0d, 0xbe,
  0xf8, 0x26, 0xc4, 0x3c, 0x34, 0x3c, 0x6b, 0x3d, 0xca, 0x55, 0xac, 0x3d,
  0xe0, 0x83, 0xa7, 0xbb, 0x95, 0x7c, 0xfd, 0xbd, 0xd0, 0x58, 0x3b, 0xbe,
  0xe9, 0x13, 0x50, 0xbe, 0x8c, 0x40, 0x09, 0x3d, 0x70, 0xe0, 0x2f, 0x3c,
  0x14, 0xed, 0x5f, 0x3d, 0x95, 0x5c, 0x42, 0x3e, 0x15, 0xc4, 0x09, 0x3e,
  0x84, 0xbe, 0x63, 0x3d, 0xd4, 0x50, 0x8d, 0xbd, 0x64, 0xff, 0x14, 0x3d,
  0x57, 0x81, 0x08, 0x3e, 0x10, 0x67, 0x6d, 0xbc, 0x95, 0xd3, 0xbd, 0xbd,
  0x1e, 0x5e, 0x0f, 0xbe, 0x42, 0x52, 0x88, 0x3d, 0xe2, 0x57, 0xed, 0xbd,
  0xd2, 0xb2, 0x54, 0xbe, 0x0c, 0x34, 0x0d, 0x3d, 0x90, 0x4b, 0x55, 0xbe,
  0x31, 0xa5, 0x23, 0x3e, 0x44, 0x79, 0x8d, 0xbd, 0x65, 0x40, 0x03, 0x3e,
  0x00, 0xf5, 0xcc, 0x3a, 0x84, 0xb2, 0x36, 0xbd, 0x04, 0x2e, 0x31, 0x3d,
  0xae, 0x94, 0xa4, 0x3d, 0xd4, 0x90, 0x8e, 0xbd, 0x58, 0xe8, 0xfa, 0xbc,
  0xbd, 0x21, 0x21, 0x3e, 0x6c, 0x22, 0x41, 0xbd, 0x60, 0xbc, 0xd0, 0x3b,
  0x22, 0x58, 0x8d, 0x3d, 0x90, 0xf7, 0xdf, 0xbd, 0xc2, 0x25, 0xa0, 0x3d,
  0xbd, 0x00, 0x08, 0xbe, 0xd4, 0xfc, 0x17, 0xbe, 0xd5, 0x06, 0x57, 0x3e,
  0xdc, 0xfe, 0x0f, 0xbd, 0xc7, 0x80, 0x15, 0x3e, 0x91, 0xf7, 0x3e, 0xbe,
  0xdc, 0xfb, 0x01, 0xbe, 0x42, 0xee, 0x0d, 0xbe, 0x00, 0x9c, 0x13, 0x39,
  0x86, 0xdd, 0x20, 0xbe, 0xf2, 0xa8, 0xd2, 0x3d, 0x31, 0xcb, 0x0e, 0x3e,
  0xc4, 0x9f, 0x01, 0xbd, 0x50, 0xb8, 0x7b, 0xbc, 0x14, 0x86, 0x6d, 0xbd,
  0xae, 0xad, 0x88, 0x3d, 0xe0, 0x0f, 0x26, 0xbc, 0xf2, 0xa9, 0xb7, 0x3d,
  0xfe, 0xf2, 0x83, 0x3d, 0x6d, 0x93, 0x4a, 0xbe, 0x92, 0x2e, 0x80, 0x3d,
  0xbd, 0xb3, 0x28, 0xbe, 0x9a, 0x6e, 0xb3, 0x3d, 0x8b, 0x3a, 0x2a, 0x3e,
  0x73, 0xac, 0x14, 0xbe, 0x5c, 0xba, 0x2d, 0x3d, 0x68, 0x8a, 0xb6, 0xbd,
  0x28, 0xfc, 0x12, 0xbd, 0x20, 0xac, 0xef, 0xbb, 0xc0, 0x62, 0x0b, 0xbe,
  0x36, 0x58, 0x8d, 0x3d, 0xd5, 0x10, 0x54, 0x3e, 0x73, 0x94, 0x13, 0x3e,
  0x40, 0xc3, 0x3f, 0xbd, 0xd0, 0xea, 0x4c, 0xbe, 0x8b, 0x8a, 0x53, 0xbe,
  0xeb, 0x63, 0x01, 0x3e, 0x97, 0x1f, 0x32, 0x3e, 0x40, 0x9c, 0x0c, 0xbe,
  0xec, 0xa6, 0x3f, 0xbe, 0x00, 0x7e, 0x3c, 0x3b, 0x50, 0x34, 0xd1, 0xbc,
  0x04, 0xbe, 0xb9, 0xbd, 0x66, 0x14, 0xee, 0x3d, 0x6d, 0x32, 0x55, 0x3e,
  0xb2, 0x2f, 0x1d, 0xbe, 0xfc, 0xc2, 0x05, 0xbe, 0xb2, 0xac, 0x1a, 0xbe,
  0x38, 0x85, 0x62, 0xbd, 0x76, 0x88, 0xb2, 0xbd, 0xe1, 0x14, 0x2e, 0x3e,
  0xee, 0xeb, 0xbb, 0x3d, 0xae, 0xb0, 0xea, 0x3d, 0x4c, 0xd7, 0x06, 0xbe,
  0xc4, 0xe7, 0x89, 0xbd, 0x2c, 0x56, 0x2a, 0x3d, 0xa1, 0x1e, 0x41, 0x3e,
  0x8c, 0x68, 0x82, 0xbd, 0x86, 0xd9, 0x91, 0xbd, 0x06, 0x40, 0x10, 0xbe,
  0xb0, 0xe4, 0x4d, 0xbc, 0x48, 0x34, 0x89, 0xbd, 0x20, 0xfc, 0x6c, 0x3c,
  0x60, 0x7e, 0x99, 0xbc, 0x7c, 0x10, 0x6f, 0x3d, 0xee, 0x38, 0x0a, 0xbe,
  0x0f, 0x21, 0x33, 0x3e, 0x34, 0x68, 0x36, 0xbd, 0x36, 0x3a, 0x25, 0xbe,
  0x70, 0x76, 0x1d, 0xbe, 0xe9, 0xbe, 0xdd, 0xbd, 0x9a, 0xa9, 0xce, 0x3d,
  0x2c, 0x57, 0x21, 0xbe, 0xf4, 0x73, 0x35, 0xbe, 0x02, 0x38, 0xf0, 0x3d,
  0x63, 0x31, 0x44, 0x3e, 0x89, 0xef, 0x0e, 0xbe, 0x44, 0x03, 0x48, 0x3d,
  0x39, 0x26, 0x1a, 0x3e, 0x48, 0x9e, 0x3f, 0xbd, 0xe3, 0x59, 0x4c, 0x3e,
  0x74, 0x90, 0x5b, 0xbd, 0x5c, 0x4f, 0x6d, 0xbd, 0xd2, 0x4a, 0xb5, 0x3d,
  0x28, 0xe6, 0x03, 0xbe, 0xe5, 0x3a, 0x4b, 0xbe, 0xce, 0x6e, 0xc5, 0x3d,
  0xe9, 0xfe, 0x16, 0x3e, 0xa4, 0x76, 0x9d, 0xbd, 0x60, 0x07, 0xa3, 0xbc,
  0x95, 0x65, 0x3f, 0x3e, 0xf9, 0x02, 0x56, 0xbe, 0x14, 0xbe, 0x6f, 0x3d,
  0xb3, 0xe9, 0x10, 0x3e, 0x80, 0xfe, 0xd4, 0xbd, 0x3c, 0x8b, 0x0f, 0x3d,
  0xa3, 0xdc, 0xbb, 0xbd, 0x7e, 0x46, 0x87, 0x3d, 0xb9, 0x15, 0xe5, 0xbd,
  0x0f, 0xa6, 0x59, 0x3e, 0x7f, 0xc0, 0x46, 0x3e, 0x6c, 0xfc, 0x63, 0xbd,
  0x7f, 0x0b, 0xff, 0xbd, 0xb0, 0x7f, 0x1c, 0xbe, 0x05, 0xf5, 0x5a, 0x3e,
  0x4e, 0x1d, 0xb4, 0xbd, 0xc4, 0x0f, 0x0c, 0xbe, 0x38, 0x81, 0x94, 0xbd,
  0x41, 0xab, 0x2a, 0x3e, 0x41, 0x05, 0x0a, 0x3e, 0xcc, 0x19, 0x50, 0xbe,
  0xd8, 0x0f, 0xde, 0xbc, 0x6a, 0x2b, 0x36, 0xbe, 0xe8, 0x1e, 0x01, 0xbe,
  0x11, 0xea, 0x49, 0x3e, 0x68, 0x0e, 0x56, 0xbe, 0x44, 0xd6, 0x1f, 0xbe,
  0x48, 0xfe, 0x96, 0xbc, 0xc7, 0xf3, 0x1c, 0x3e, 0xf1, 0x28, 0x2c, 0x3e,
  0xe1, 0x54, 0xfa, 0xbd, 0x92, 0x31, 0xcf, 0x3d, 0x40, 0x98, 0x59, 0xbc,
  0x75, 0x78, 0xee, 0xbd, 0x00, 0x90, 0x4d, 0x3b, 0x30, 0x3e, 0x56, 0xbe,
  0x74, 0xd5, 0x2c, 0xbd, 0x1a, 0xe6, 0xc5, 0x3d, 0x07, 0x44, 0x33, 0x3e,
  0xf7, 0x86, 0x43, 0x3e, 0xef, 0x11, 0x14, 0x3e, 0xbd, 0xb3, 0x28, 0x3e,
  0x49, 0x45, 0x05, 0x3e, 0xfb, 0x30, 0xf5, 0xbd, 0x6b, 0xce, 0x2a, 0x3e,
  0x38, 0xaa, 0x27, 0xbe, 0x0c, 0xdd, 0x12, 0xbe, 0x8e, 0x98, 0x23, 0xbe,
  0x29, 0x1d, 0x28, 0xbe, 0x0d, 0x3f, 0x2d, 0x3e, 0x7a, 0x9b, 0xb0, 0xbd,
  0xd4, 0xb5, 0x34, 0xbd, 0xad, 0xcd, 0x4c, 0x3e, 0x61, 0x6d, 0x3b, 0x3e,
  0xb1, 0x2c, 0x1a, 0x3e, 0xf2, 0x4f, 0x19, 0xbe, 0x00, 0xdb, 0x95, 0x3a,
  0xaa, 0xa8, 0xca, 0x3d, 0x70, 0xf6, 0x8f, 0xbd, 0xc0, 0xc0, 0x7d, 0xbc,
  0xc1, 0x83, 0x47, 0xbe, 0x58, 0x41, 0x9a, 0xbc, 0xc4, 0xed, 0x29, 0x3d,
  0x58, 0xdf, 0x42, 0xbd, 0x5f, 0x84, 0x56, 0x3e, 0x30, 0xd3, 0xf8, 0xbc,
  0x84, 0x4e, 0x1b, 0xbd, 0x66, 0xc6, 0xd1, 0xbd, 0xf0, 0xeb, 0xbc, 0xbc,
  0x2a, 0xaf, 0xf6, 0x3d, 0x70, 0x59, 0xba, 0x3c, 0x94, 0x2a, 0x6f, 0x3d,
  0x57, 0x12, 0x56, 0x3e, 0xb8, 0x87, 0xf0, 0xbc, 0xc1, 0x6f, 0xe6, 0xbd,
  0xd3, 0x58, 0x5a, 0x3e, 0x0b, 0x31, 0x4d, 0x3e, 0x44, 0xb9, 0x63, 0x3d,
  0x73, 0x06, 0x53, 0x3e, 0xed, 0x39, 0x4c, 0xbe, 0xe7, 0xd2, 0x49, 0x3e,
  0x8b, 0xb7, 0x38, 0xbe, 0x0c, 0xfc, 0xaf, 0xbd, 0x6a, 0xde, 0xd9, 0x3d,
  0x1f, 0x66, 0x5c, 0xbe, 0x02, 0x71, 0xeb, 0x3d, 0xe9, 0xa9, 0x3e, 0x3e,
  0x5a, 0x76, 0xbf, 0x3d, 0x5a, 0x28, 0xb6, 0x3d, 0x93, 0xea, 0xf9, 0xbd,
  0xea, 0x20, 0x53, 0xbe, 0xb2, 0x7d, 0x54, 0xbe, 0x00, 0x68, 0x06, 0xbd,
  0xd7, 0x8a, 0x15, 0x3e, 0x25, 0x3a, 0x04, 0x3e, 0xd0, 0x50, 0x1c, 0xbd,
  0x27, 0x94, 0x0b, 0x3e, 0x26, 0x6f, 0xde, 0x3d, 0x59, 0x9b, 0xc3, 0xbd,
  0xad, 0x5f, 0x29, 0x3e, 0xa0, 0xf4, 0xbd, 0xbd, 0x2c, 0x1c, 0x23, 0xbd,
  0x1e, 0x00, 0xb8, 0x3d, 0x04, 0xbb, 0x25, 0xbd, 0xec, 0xb0, 0x1b, 0x3d,
  0xbd, 0xe0, 0x48, 0x3e, 0xe8, 0xec, 0x9a, 0xbd, 0xf5, 0x0b, 0xd1, 0xbd,
  0x3e, 0x8f, 0xa4, 0x3d, 0x33, 0x12, 0x3d, 0xbe, 0x51, 0x3d, 0x52, 0x3e,
  0x20, 0xec, 0xb7, 0x3b, 0x3a, 0x33, 0xad, 0xbd, 0x01, 0x5e, 0x0c, 0x3e,
  0x19, 0x51, 0x53, 0x3e, 0xe0, 0xe1, 0x6d, 0xbd, 0x3e, 0x20, 0xcc, 0xbd,
  0x3a, 0x3d, 0xf3, 0x3d, 0xf0, 0xba, 0x10, 0xbc, 0x96, 0x31, 0xc6, 0xbd,
  0x60, 0x72, 0xef, 0x3c, 0x60, 0xf0, 0xd3, 0xbc, 0x58, 0xba, 0xb5, 0xbc,
  0x4e, 0xf0, 0xe3, 0x3d, 0x82, 0x50, 0xd8, 0x3d, 0x4d, 0x8b, 0x39, 0xbe,
  0xce, 0x86, 0xe7, 0x3d, 0x6f, 0xa2, 0x19, 0x3e, 0x92, 0xf5, 0x57, 0xbe,
  0x8f, 0x2d, 0x2a, 0x3e, 0xca, 0x0f, 0x9e, 0x3d, 0x35, 0x6f, 0xe7, 0xbd,
  0x00, 0x94, 0x17, 0xbd, 0x17, 0xcb, 0x1a, 0xbe, 0x9b, 0xb0, 0xe2, 0xbd,
  0x10, 0x8e, 0xfa, 0xbd, 0x65, 0x15, 0x17, 0x3e, 0xe1, 0x70, 0xe1, 0xbd,
  0x97, 0xb7, 0x49, 0x3e, 0xf2, 0x64, 0xc7, 0xbd, 0x6e, 0x44, 0xdc, 0xbd,
  0xeb, 0x1d, 0x14, 0x3e, 0x2c, 0xbf, 0x35, 0x3d, 0x61, 0xbd, 0x31, 0x3e,
  0x04, 0xe9, 0x0e, 0x3d, 0x8e, 0x74, 0xa1, 0x3d, 0x10, 0x86, 0xaf, 0xbc,
  0x50, 0xb4, 0x5f, 0xbd, 0x03, 0x7e, 0x1c, 0x3e, 0x57, 0x79, 0x55, 0xbe,
  0x0e, 0x72, 0x94, 0x3d, 0xe0, 0xf8, 0x92, 0x3b, 0x21, 0x3c, 0x44, 0x3e,
  0x10, 0x04, 0x53, 0xbc, 0x18, 0xdb, 0x96, 0x3c, 0xf4, 0xed, 0x4e, 0x3d,
  0xf1, 0xbc, 0x45, 0xbe, 0x54, 0x44, 0x6b, 0xbd, 0x7c, 0x2a, 0x53, 0x3d,
  0x5f, 0x19, 0xf3, 0xbd, 0xe1, 0xfa, 0x39, 0x3e, 0xf4, 0x3e, 0x50, 0x3d,
  0x9f, 0xdd, 0x23, 0xbe, 0xd8, 0xbe, 0x44, 0xbe, 0x8a, 0x3c, 0xbd, 0x3d,
  0x3a, 0x0f, 0xc8, 0xbd, 0x78, 0xd3, 0xb0, 0x3c, 0x44, 0x61, 0x44, 0x3d,
  0x18, 0xd8, 0x80, 0xbc, 0x39, 0x88, 0x35, 0xbe, 0xc0, 0xb6, 0x61, 0x3c,
  0xbc, 0x89, 0x27, 0x3d, 0x3f, 0x80, 0x2c, 0xbe, 0xda, 0x92, 0xed, 0x3d,
  0x6f, 0x72, 0x35, 0x3e, 0xe0, 0xff, 0xbc, 0xbc, 0x71, 0xe9, 0x03, 0xbe,
  0x54, 0x02, 0x4d, 0xbd, 0x28, 0x3d, 0x58, 0xbd, 0x7f, 0x39, 0x4d, 0x3e,
  0xae, 0x97, 0xa0, 0x3d, 0x61, 0x83, 0x21, 0x3e, 0x13, 0xd3, 0x25, 0x3e,
  0x52, 0xcc, 0xf2, 0xbd, 0xee, 0x15, 0xfe, 0x3d, 0x68, 0x1f, 0x9e, 0xbd,
  0x26, 0xe0, 0x4f, 0xbe, 0x86, 0x83, 0xa9, 0x3d, 0xf8, 0x23, 0x5a, 0xbe,
  0xe6, 0x56, 0xe1, 0xbd, 0xba, 0x34, 0xec, 0x3d, 0xe2, 0x30, 0x0d, 0xbe,
  0xb2, 0x9f, 0x83, 0x3d, 0xaa, 0xb3, 0xa7, 0x3d, 0xa2, 0x36, 0x90, 0x3d,
  0x53, 0x44, 0x0d, 0x3e, 0xc8, 0x12, 0xc7, 0xbd, 0x42, 0x1b, 0xfd, 0x3d,
  0x6a, 0x3d, 0xaf, 0xbd, 0xdf, 0x6b, 0x47, 0x3e, 0x1a, 0x0f, 0xc9, 0x3d,
  0xb7, 0x8c, 0x57, 0x3e, 0x60, 0xff, 0xcd, 0xbb, 0xee, 0x04, 0x2e, 0xbe,
  0x9c, 0x19, 0x73, 0xbd, 0xd9, 0x2b, 0x55, 0x3e, 0x42, 0x27, 0xff, 0x3d,
  0x06, 0x5c, 0xaf, 0xbd, 0x5e, 0x4d, 0xb1, 0xbd, 0x71, 0xf6, 0x29, 0x3e,
  0xa8, 0x62, 0x9e, 0xbc, 0x9d, 0x7f, 0x3c, 0x3e, 0x8f, 0xb5, 0x29, 0x3e,
  0x26, 0x43, 0xe0, 0x3d, 0x7b, 0xe7, 0x05, 0x3e, 0x7a, 0x26, 0xdf, 0x3d,
  0xc1, 0xf3, 0x41, 0xbe, 0xd3, 0x05, 0x58, 0xbe, 0x00, 0xe1, 0x5b, 0x3b,
  0x5a, 0x6a, 0xf9, 0x3d, 0xfa, 0xcd, 0xdd, 0x3d, 0x9e, 0xbd, 0x20, 0xbe,
  0x5a, 0x8e, 0xa3, 0x3d, 0x37, 0xbb, 0x08, 0x3e, 0x3c, 0xac, 0x7e, 0xbd,
  0xdc, 0xd2, 0x1e, 0x3d, 0x71, 0x12, 0x16, 0x3e, 0x2c, 0xdd, 0x47, 0x3d,
  0x36, 0xad, 0xc3, 0x3d, 0x4b, 0x86, 0x37, 0x3e, 0x5a, 0xf1, 0xe8, 0x3d,
  0xa4, 0x29, 0x8d, 0xbd, 0xca, 0x8b, 0x1a, 0xbe, 0x6a, 0xf4, 0xcc, 0x3d,
  0xf4, 0xfb, 0x72, 0xbd, 0xeb, 0x37, 0x1f, 0xbe, 0xc6, 0x31, 0x46, 0xbe,
  0x40, 0xaa, 0xb1, 0xbd, 0xe0, 0x63, 0xa5, 0x3c, 0xf8, 0xac, 0x53, 0xbe,
  0x14, 0x60, 0x2d, 0x3d, 0xab, 0x43, 0x23, 0x3e, 0xfe, 0xb8, 0x9d, 0x3d,
  0xb4, 0x83, 0x76, 0x3d, 0x00, 0xae, 0x95, 0xba, 0xbe, 0xbe, 0x14, 0xbe,
  0x3d, 0x61, 0x2e, 0x3e, 0xf7, 0x53, 0x2e, 0x3e, 0x68, 0x82, 0xd4, 0xbc,
  0x01, 0x09, 0x18, 0x3e, 0x38, 0x75, 0xc3, 0x3c, 0x88, 0xd4, 0x39, 0xbe,
  0x6f, 0x0a, 0x30, 0x3e, 0x19, 0xb9, 0x32, 0x3e, 0xa6, 0x70, 0x84, 0xbd,
  0xac, 0x69, 0xa1, 0xbd, 0x69, 0x99, 0x4d, 0x3e, 0xc8, 0x09, 0x04, 0x3d,
  0xc0, 0x3f, 0x1c, 0x3c, 0x0d, 0x23, 0x29, 0xbe, 0x44, 0x75, 0x15, 0x3d,
  0xd2, 0xd4, 0xe2, 0x3d, 0xac, 0xe8, 0x7d, 0x3d, 0x4a, 0xf5, 0x9a, 0x3d,
  0x64, 0xa5, 0xe3, 0xbd, 0x1d, 0xcc, 0xf4, 0xbd, 0x8c, 0x54, 0x16, 0xbe,
  0x7c, 0xa3, 0x48, 0x3d, 0x87, 0x73, 0xc1, 0xbd, 0x2b, 0xed, 0x04, 0xbe,
  0xdd, 0x94, 0x5c, 0x3e, 0x91, 0x4e, 0x5c, 0x3e, 0x8c, 0x18, 0x66, 0x3d,
  0xf4, 0x76, 0x40, 0x3d, 0x9e, 0x47, 0x10, 0xbe, 0x78, 0x4b, 0x76, 0xbd,
  0xc8, 0x2c, 0xc2, 0x3c, 0xa0, 0x32, 0xec, 0xbd, 0x1c, 0x9d, 0x10, 0x3d,
  0xc0, 0x1a, 0xd1, 0xbb, 0xdb, 0x6d, 0x34, 0xbe, 0xec, 0x7a, 0x1c, 0x3d,
  0xbd, 0x7a, 0x3e, 0xbe, 0x6c, 0xce, 0x58, 0x3d, 0xb0, 0x63, 0x5b, 0xbc,
  0x1a, 0x25, 0xde, 0x3d, 0x5a, 0x11, 0xc3, 0x3d, 0xbd, 0xad, 0x27, 0xbe,
  0x06, 0xc9, 0xc7, 0xbd, 0xef, 0x09, 0x42, 0x3e, 0xcc, 0x07, 0x2e, 0xbe,
  0xb0, 0xf1, 0x8e, 0xbc, 0x28, 0x85, 0xf3, 0x3c, 0x13, 0x9c, 0x42, 0xbe,
  0x72, 0xdd, 0x0e, 0xbe, 0xd3, 0x20, 0x57, 0x3e, 0x30, 0x2e, 0x14, 0xbe,
  0x40, 0x61, 0x15, 0xbd, 0x08, 0x4a, 0xe9, 0xbd, 0x67, 0xf5, 0x0d, 0xbe,
  0x1c, 0xe6, 0x62, 0x3d, 0x02, 0xec, 0xdf, 0xbd, 0x86, 0x38, 0xa7, 0x3d,
  0x5f, 0x0f, 0x3a, 0x3e, 0x30, 0x4a, 0x34, 0x3c, 0x11, 0xa6, 0x41, 0x3e,
  0x3c, 0xb2, 0xba, 0xbd, 0x98, 0xaf, 0xd6, 0xbc, 0xa8, 0x72, 0x85, 0xbc,
  0x42, 0x94, 0x8f, 0x3d, 0x00, 0x30, 0x16, 0x3a, 0xe0, 0xd4, 0xd2, 0xbb,
  0xc4, 0x85, 0x3a, 0xbd, 0x04, 0xc9, 0x36, 0x3d, 0x3a, 0x5c, 0xca, 0x3d,
  0xe8, 0xf8, 0xcc, 0xbc, 0xa0, 0x95, 0xaa, 0xbd, 0x1b, 0xce, 0x5b, 0x3e,
  0xac, 0x96, 0x28, 0xbe, 0xee, 0xbe, 0xd1, 0x3d, 0x7c, 0x06, 0x66, 0x3d,
  0x20, 0x58, 0x98, 0xbd, 0xc7, 0x31, 0x49, 0x3e, 0x14, 0xa4, 0x10, 0xbe,
  0x69, 0xe8, 0x03, 0x3e, 0xfe, 0x2d, 0x57, 0xbe, 0x26, 0xd7, 0xe4, 0x3d,
  0x85, 0xcf, 0x3a, 0xbe, 0x74, 0x0e, 0x07, 0xbe, 0x3e, 0xf4, 0x20, 0xbe,
  0xf2, 0x22, 0xdc, 0x3d, 0x90, 0x55, 0xfa, 0x3c, 0xe9, 0xe7, 0x2c, 0xbe,
  0xa4, 0x8b, 0x72, 0xbd, 0x55, 0xff, 0x0f, 0x3e, 0xd0, 0x07, 0xee, 0xbc,
  0xda, 0xdb, 0x83, 0x3d, 0xe7, 0xe7, 0xd4, 0xbd, 0xd2, 0x78, 0x82, 0x3d,
  0x14, 0x69, 0x5c, 0xbd, 0xdc, 0xfc, 0x2c, 0xbd, 0xba, 0xa9, 0xd6, 0x3d,
  0x50, 0x4e, 0xb0, 0x3c, 0xef, 0x92, 0x56, 0xbe, 0x91, 0x82, 0x18, 0x3e,
  0x30, 0xe2, 0x58, 0xbd, 0xf0, 0x3d, 0x05, 0xbc, 0x09, 0x3a, 0x42, 0x3e,
  0xbc, 0x75, 0x70, 0x3d, 0x44, 0x8f, 0x69, 0xbd, 0x90, 0x45, 0x2f, 0xbe,
  0xce, 0xac, 0xc0, 0x3d, 0x0a, 0xf8, 0xba, 0x3d, 0x6f, 0x8a, 0x24, 0xbe,
  0x59, 0x8d, 0x2a, 0x3e, 0x10, 0xd1, 0x10, 0xbc, 0xad, 0x89, 0x05, 0xbe,
  0xbc, 0x93, 0x25, 0x3d, 0xb1, 0x2a, 0x28, 0xbe, 0x01, 0x2c, 0x04, 0xbe,
  0x08, 0x7f, 0xfb, 0x3c, 0xaf, 0x11, 0xe6, 0xbd, 0x40, 0x4d, 0xd3, 0xbc,
  0xf4, 0x8b, 0xc9, 0xbd, 0xbd, 0x00, 0x56, 0xbe, 0x10, 0xca, 0x56, 0xbd,
  0x5a, 0xde, 0xac, 0x3d, 0x29, 0x11, 0x2e, 0xbe, 0x1c, 0xb9, 0x20, 0xbe,
  0x3e, 0x08, 0xe2, 0x3d, 0x5c, 0x5a, 0x4e, 0xbd, 0x20, 0xfc, 0x23, 0xbc,
  0xf9, 0xe1, 0xdb, 0xbd, 0x50, 0xa8, 0x46, 0xbd, 0xd8, 0xb5, 0xec, 0xbc,
  0xc9, 0x76, 0x1f, 0x3e, 0x4e, 0xdf, 0x27, 0xbe, 0xe1, 0x1d, 0x45, 0xbe,
  0x38, 0x3b, 0xdd, 0xbd, 0x0f, 0x49, 0x1b, 0x3e, 0x80, 0x75, 0x44, 0xbd,
  0x37, 0x18, 0x55, 0x3e, 0xe0, 0xf5, 0xff, 0xbc, 0x01, 0x5f, 0x42, 0xbe,
  0xe1, 0x70, 0x56, 0x3e, 0xf1, 0x6c, 0x54, 0x3e, 0xb3, 0xc4, 0x3d, 0x3e,
  0x80, 0x0d, 0xa9, 0xbb, 0x54, 0x2f, 0x1d, 0x3d, 0x86, 0xe8, 0x06, 0xbe,
  0x41, 0xd5, 0x28, 0x3e, 0xcf, 0xbf, 0xd9, 0xbd, 0xd3, 0x0a, 0x5c, 0xbe,
  0x00, 0x54, 0xd7, 0x3a, 0x08, 0x98, 0x18, 0xbd, 0x31, 0xa3, 0x0f, 0x3e,
  0xaa, 0xd1, 0x17, 0xbe, 0xfc, 0xf3, 0x55, 0xbd, 0xe6, 0x88, 0x9b, 0x3d,
  0x5f, 0x2a, 0x27, 0x3e, 0x32, 0x10, 0x87, 0x3d, 0x78, 0x9f, 0xf9, 0xbc,
  0x17, 0x35, 0x53, 0xbe, 0x96, 0x02, 0xb1, 0xbd, 0x6e, 0xa2, 0xa0, 0xbd,
  0x08, 0x8f, 0xcb, 0x3c, 0xe8, 0xa2, 0x8a, 0x3c, 0x51, 0x94, 0x32, 0x3e,
  0xd8, 0xc2, 0xfd, 0x3c, 0xa6, 0x8e, 0xa6, 0x3d, 0xba, 0x90, 0x1f, 0xbe,
  0x3c, 0xb6, 0x3b, 0x3d, 0x2b, 0x76, 0x59, 0xbe, 0x48, 0x03, 0xe3, 0xbd,
  0xfc, 0x94, 0x5a, 0xbe, 0x91, 0x9b, 0xc6, 0xbd, 0xe1, 0x05, 0x0d, 0x3e,
  0xe4, 0xdb, 0x82, 0xbd, 0x29, 0xda, 0x48, 0x3e, 0x60, 0x42, 0x6c, 0x3c,
  0x63, 0x12, 0x15, 0x3e, 0xf0, 0x81, 0x24, 0x3c, 0x48, 0x37, 0xab, 0xbc,
  0x0b, 0xeb, 0x4c, 0x3e, 0x27, 0x0a, 0x41, 0x3e, 0xce, 0xa8, 0xed, 0x3d,
  0x9a, 0xc6, 0xf7, 0x3d, 0x96, 0x5f, 0x93, 0x3d, 0xe7, 0x88, 0xdf, 0xbd,
  0xb8, 0x35, 0x04, 0xbe, 0x61, 0x6c, 0x36, 0xbe, 0x42, 0x40, 0xf6, 0x3d,
  0xe0, 0xb9, 0x16, 0xbd, 0x01, 0xca, 0x0f, 0x3e, 0xd8, 0x90, 0x40, 0xbe,
  0x3a, 0xff, 0xff, 0xff, 0x10, 0x00, 0x00, 0x00, 0x04, 0x00, 0x00, 0x00,
  0x14, 0x00, 0x00, 0x00, 0x2c, 0x00, 0x00, 0x00, 0x02, 0x00, 0x00, 0x00,
  0x10, 0x00, 0x00, 0x00, 0x70, 0x00, 0x00, 0x00, 0x17, 0x00, 0x00, 0x00,
  0x73, 0x65, 0x71, 0x75, 0x65, 0x6e, 0x74, 0x69, 0x61, 0x6c, 0x2f, 0x64,
  0x65, 0x6e, 0x73, 0x65, 0x2f, 0x4d, 0x61, 0x74, 0x4d, 0x75, 0x6c, 0x00,
  0xa4, 0xfe, 0xff, 0xff, 0x92, 0xff, 0xff, 0xff, 0x04, 0x00, 0x00, 0x00,
  0x08, 0x00, 0x00, 0x00, 0xff, 0xff, 0xff, 0xff, 0x70, 0x00, 0x00, 0x00,
  0x00, 0x00, 0x0e, 0x00, 0x18, 0x00, 0x08, 0x00, 0x07, 0x00, 0x0c, 0x00,
  0x10, 0x00, 0x14, 0x00, 0x0e, 0x00, 0x00, 0x00, 0x00, 0x00, 0x00, 0x02,
  0x10, 0x00, 0x00, 0x00, 0x03, 0x00, 0x00, 0x00, 0x10, 0x00, 0x00, 0x00,
  0x30, 0x00, 0x00, 0x00, 0x01, 0x00, 0x00, 0x00, 0x02, 0x00, 0x00, 0x00,
  0x18, 0x00, 0x00, 0x00, 0x73, 0x65, 0x71, 0x75, 0x65, 0x6e, 0x74, 0x69,
  0x61, 0x6c, 0x2f, 0x66, 0x6c, 0x61, 0x74, 0x74, 0x65, 0x6e, 0x2f, 0x43,
  0x6f, 0x6e, 0x73, 0x74, 0x00, 0x00, 0x00, 0x00, 0x04, 0x00, 0x06, 0x00,
  0x04, 0x00, 0x00, 0x00, 0x00, 0x00, 0x06, 0x00, 0x08, 0x00, 0x04, 0x00,
  0x06, 0x00, 0x00, 0x00, 0x04, 0x00, 0x00, 0x00, 0x04, 0x00, 0x00, 0x00,
  0x00, 0x00, 0x00, 0x00, 0x00, 0x00, 0x0e, 0x00, 0x14, 0x00, 0x04, 0x00,
  0x00, 0x00, 0x08, 0x00, 0x0c, 0x00, 0x10, 0x00, 0x0e, 0x00, 0x00, 0x00,
  0x10, 0x00, 0x00, 0x00, 0x02, 0x00, 0x00, 0x00, 0x10, 0x00, 0x00, 0x00,
  0x44, 0x00, 0x00, 0x00, 0x01, 0x00, 0x00, 0x00, 0x01, 0x00, 0x00, 0x00,
  0x32, 0x00, 0x00, 0x00, 0x73, 0x65, 0x71, 0x75, 0x65, 0x6e, 0x74, 0x69,
  0x61, 0x6c, 0x2f, 0x64, 0x65, 0x6e, 0x73, 0x65, 0x5f, 0x31, 0x2f, 0x42,
  0x69, 0x61, 0x73, 0x41, 0x64, 0x64, 0x2f, 0x52, 0x65, 0x61, 0x64, 0x56,
  0x61, 0x72, 0x69, 0x61, 0x62, 0x6c, 0x65, 0x4f, 0x70, 0x2f, 0x72, 0x65,
  0x73, 0x6f, 0x75, 0x72, 0x63, 0x65, 0x00, 0x00, 0x90, 0xff, 0xff, 0xff,
  0x14, 0x00, 0x18, 0x00, 0x04, 0x00, 0x00, 0x00, 0x08, 0x00, 0x0c, 0x00,
  0x10, 0x00, 0x00, 0x00, 0x00, 0x00, 0x14, 0x00, 0x14, 0x00, 0x00, 0x00,
  0x14, 0x00, 0x00, 0x00, 0x01, 0x00, 0x00, 0x00, 0x20, 0x00, 0x00, 0x00,
  0x44, 0x00, 0x00, 0x00, 0x2c, 0x00, 0x00, 0x00, 0x04, 0x00, 0x00, 0x00,
  0x01, 0x00, 0x00, 0x00, 0x40, 0x00, 0x00, 0x00, 0x03, 0x00, 0x00, 0x00,
  0x01, 0x00, 0x00, 0x00, 0x0c, 0x00, 0x00, 0x00, 0x63, 0x6f, 0x6e, 0x76,
  0x32, 0x64, 0x5f, 0x69, 0x6e, 0x70, 0x75, 0x74, 0x00, 0x00, 0x00, 0x00,
  0x04, 0x00, 0x00, 0x00, 0xff, 0xff, 0xff, 0xff, 0x40, 0x00, 0x00, 0x00,
  0x03, 0x00, 0x00, 0x00, 0x01, 0x00, 0x00, 0x00, 0xfc, 0xff, 0xff, 0xff,
  0x04, 0x00, 0x04, 0x00, 0x04, 0x00, 0x00, 0x00
};

unsigned int model_tflite_len = 12596;// Fill the int in `src/model.cc` here